#include "model_data.h"

alignas(16) const unsigned char g_model_data[] = {
  0x20, 0x00, 0x00, 0x00, 0x54, 0x46, 0x4c, 0x33, 0x00, 0x00, 0x00, 0x00,
  0x14, 0x00, 0x20, 0x00, 0x1c, 0x00, 0x18, 0x00, 0x14, 0x00, 0x10, 0x00,
  0x0c, 0x00, 0x00, 0x00, 0x08, 0x00, 0x04, 0x00, 0x14, 0x00, 0x00, 0x00,
  0x1c, 0x00, 0x00, 0x00, 0x9c, 0x00, 0x00, 0x00, 0xf4, 0x00, 0x00, 0x00,
  0xdc, 0x0a, 0x00, 0x00, 0xec, 0x0a, 0x00, 0x00, 0x2c, 0x24, 0x00, 0x00,
  0x03, 0x00, 0x00, 0x00, 0x01, 0x00, 0x00, 0x00, 0x04, 0x00, 0x00, 0x00,
  0x5a, 0xf2, 0xff, 0xff, 0x0c, 0x00, 0x00, 0x00, 0x1c, 0x00, 0x00, 0x00,
  0x3c, 0x00, 0x00, 0x00, 0x0f, 0x00, 0x00, 0x00, 0x73, 0x65, 0x72, 0x76,
  0x69, 0x6e, 0x67, 0x5f, 0x64, 0x65, 0x66, 0x61, 0x75, 0x6c, 0x74, 0x00,
  0x01, 0x00, 0x00, 0x00, 0x04, 0x00, 0x00, 0x00, 0x80, 0xff, 0xff, 0xff,
  0x1c, 0x00, 0x00, 0x00, 0x04, 0x00, 0x00, 0x00, 0x08, 0x00, 0x00, 0x00,
  0x6f, 0x75, 0x74, 0x70, 0x75, 0x74, 0x5f, 0x30, 0x00, 0x00, 0x00, 0x00,
  0x02, 0x00, 0x00, 0x00, 0x18, 0x00, 0x00, 0x00, 0x04, 0x00, 0x00, 0x00,
  0x46, 0xf4, 0xff, 0xff, 0x04, 0x00, 0x00, 0x00, 0x02, 0x00, 0x00, 0x00,
  0x72, 0x72, 0x00, 0x00, 0xb8, 0xff, 0xff, 0xff, 0x01, 0x00, 0x00, 0x00,
  0x04, 0x00, 0x00, 0x00, 0x04, 0x00, 0x00, 0x00, 0x62, 0x65, 0x61, 0x74,
  0x00, 0x00, 0x00, 0x00, 0x02, 0x00, 0x00, 0x00, 0x34, 0x00, 0x00, 0x00,
  0x04, 0x00, 0x00, 0x00, 0xdc, 0xff, 0xff, 0xff, 0x1f, 0x00, 0x00, 0x00,
  0x04, 0x00, 0x00, 0x00, 0x13, 0x00, 0x00, 0x00, 0x43, 0x4f, 0x4e, 0x56,
  0x45, 0x52, 0x53, 0x49, 0x4f, 0x4e, 0x5f, 0x4d, 0x45, 0x54, 0x41, 0x44,
  0x41, 0x54, 0x41, 0x00, 0x08, 0x00, 0x0c, 0x00, 0x08, 0x00, 0x04, 0x00,
  0x08, 0x00, 0x00, 0x00, 0x1e, 0x00, 0x00, 0x00, 0x04, 0x00, 0x00, 0x00,
  0x13, 0x00, 0x00, 0x00, 0x6d, 0x69, 0x6e, 0x5f, 0x72, 0x75, 0x6e, 0x74,
  0x69, 0x6d, 0x65, 0x5f, 0x76, 0x65, 0x72, 0x73, 0x69, 0x6f, 0x6e, 0x00,
  0x20, 0x00, 0x00, 0x00, 0xe4, 0x09, 0x00, 0x00, 0xdc, 0x09, 0x00, 0x00,
  0xd4, 0x09, 0x00, 0x00, 0xc0, 0x09, 0x00, 0x00, 0xa4, 0x09, 0x00, 0x00,
  0x90, 0x09, 0x00, 0x00, 0x74, 0x09, 0x00, 0x00, 0x58, 0x09, 0x00, 0x00,
  0x34, 0x09, 0x00, 0x00, 0xd4, 0x08, 0x00, 0x00, 0x84, 0x08, 0x00, 0x00,
  0x34, 0x07, 0x00, 0x00, 0xe4, 0x06, 0x00, 0x00, 0xd4, 0x01, 0x00, 0x00,
  0x84, 0x01, 0x00, 0x00, 0x04, 0x01, 0x00, 0x00, 0xfc, 0x00, 0x00, 0x00,
  0xf4, 0x00, 0x00, 0x00, 0xec, 0x00, 0x00, 0x00, 0xe4, 0x00, 0x00, 0x00,
  0xdc, 0x00, 0x00, 0x00, 0xd4, 0x00, 0x00, 0x00, 0xcc, 0x00, 0x00, 0x00,
  0xc4, 0x00, 0x00, 0x00, 0xbc, 0x00, 0x00, 0x00, 0xb4, 0x00, 0x00, 0x00,
  0xac, 0x00, 0x00, 0x00, 0xa4, 0x00, 0x00, 0x00, 0x9c, 0x00, 0x00, 0x00,
  0x94, 0x00, 0x00, 0x00, 0x74, 0x00, 0x00, 0x00, 0x04, 0x00, 0x00, 0x00,
  0x4e, 0xf5, 0xff, 0xff, 0x04, 0x00, 0x00, 0x00, 0x60, 0x00, 0x00, 0x00,
  0x0c, 0x00, 0x00, 0x00, 0x08, 0x00, 0x0e, 0x00, 0x08, 0x00, 0x04, 0x00,
  0x08, 0x00, 0x00, 0x00, 0x10, 0x00, 0x00, 0x00, 0x28, 0x00, 0x00, 0x00,
  0x00, 0x00, 0x06, 0x00, 0x08, 0x00, 0x04, 0x00, 0x06, 0x00, 0x00, 0x00,
  0x04, 0x00, 0x00, 0x00, 0x01, 0x00, 0x00, 0x00, 0xeb, 0x03, 0x00, 0x00,
  0x0c, 0x00, 0x18, 0x00, 0x14, 0x00, 0x10, 0x00, 0x0c, 0x00, 0x04, 0x00,
  0x0c, 0x00, 0x00, 0x00, 0x8b, 0x11, 0x32, 0xdf, 0x45, 0x2a, 0x00, 0x80,
  0x02, 0x00, 0x00, 0x00, 0x02, 0x00, 0x00, 0x00, 0x04, 0x00, 0x00, 0x00,
  0x06, 0x00, 0x00, 0x00, 0x32, 0x2e, 0x32, 0x31, 0x2e, 0x30, 0x00, 0x00,
  0xba, 0xf5, 0xff, 0xff, 0x04, 0x00, 0x00, 0x00, 0x10, 0x00, 0x00, 0x00,
  0x31, 0x2e, 0x31, 0x34, 0x2e, 0x30, 0x00, 0x00, 0x00, 0x00, 0x00, 0x00,
  0x00, 0x00, 0x00, 0x00, 0x04, 0xdf, 0xff, 0xff, 0x08, 0xdf, 0xff, 0xff,
  0x0c, 0xdf, 0xff, 0xff, 0x10, 0xdf, 0xff, 0xff, 0x14, 0xdf, 0xff, 0xff,
  0x18, 0xdf, 0xff, 0xff, 0x1c, 0xdf, 0xff, 0xff, 0x20, 0xdf, 0xff, 0xff,
  0x24, 0xdf, 0xff, 0xff, 0x28, 0xdf, 0xff, 0xff, 0x2c, 0xdf, 0xff, 0xff,
  0x30, 0xdf, 0xff, 0xff, 0x34, 0xdf, 0xff, 0xff, 0x38, 0xdf, 0xff, 0xff,
  0x0e, 0xf6, 0xff, 0xff, 0x04, 0x00, 0x00, 0x00, 0x70, 0x00, 0x00, 0x00,
  0xa6, 0xad, 0xe9, 0x5d, 0xc9, 0x81, 0xcd, 0x2f, 0xea, 0x94, 0x29, 0x81,
  0x82, 0xa4, 0x7f, 0x73, 0xe3, 0xeb, 0xe9, 0xe0, 0xa1, 0xb5, 0x9f, 0xaf,
  0x35, 0xd1, 0x81, 0xbf, 0x81, 0x9e, 0xe2, 0x2b, 0x40, 0x72, 0x3a, 0xe0,
  0x0d, 0x32, 0x08, 0x7f, 0x5d, 0x77, 0x4c, 0x57, 0x65, 0x0a, 0xda, 0xbf,
  0x81, 0x89, 0x36, 0x0c, 0x0c, 0xed, 0x81, 0xba, 0x74, 0x5a, 0x47, 0xd9,
  0x02, 0xbf, 0x81, 0xf0, 0xd5, 0xdf, 0x05, 0x09, 0x81, 0x8f, 0x4e, 0x7f,
  0x12, 0xd4, 0x47, 0x72, 0x3d, 0x9a, 0xb7, 0x2f, 0xb8, 0x81, 0x11, 0xe3,
  0xfc, 0x81, 0xd8, 0x08, 0xd6, 0x69, 0x77, 0x9e, 0x8c, 0xc8, 0x06, 0x4b,
  0x7f, 0x4c, 0xff, 0x94, 0xd9, 0x81, 0xd6, 0xfe, 0xb5, 0x00, 0x7a, 0x7a,
  0x7f, 0x65, 0x21, 0x04, 0x8a, 0xf6, 0xff, 0xff, 0x04, 0x00, 0x00, 0x00,
  0x40, 0x00, 0x00, 0x00, 0xe1, 0x02, 0x00, 0x00, 0x38, 0x01, 0x00, 0x00,
  0x02, 0x02, 0x00, 0x00, 0xc8, 0xfb, 0xff, 0xff, 0x90, 0x01, 0x00, 0x00,
  0x0b, 0x01, 0x00, 0x00, 0x46, 0x02, 0x00, 0x00, 0xfa, 0xfd, 0xff, 0xff,
  0x65, 0x02, 0x00, 0x00, 0xd8, 0xf8, 0xff, 0xff, 0xa3, 0xf9, 0xff, 0xff,
  0x12, 0xff, 0xff, 0xff, 0xd7, 0x00, 0x00, 0x00, 0xf4, 0xff, 0xff, 0xff,
  0x22, 0xff, 0xff, 0xff, 0x59, 0xf8, 0xff, 0xff, 0xd6, 0xf6, 0xff, 0xff,
  0x04, 0x00, 0x00, 0x00, 0x00, 0x05, 0x00, 0x00, 0x1c, 0xee, 0x19, 0x48,
  0x5b, 0xe2, 0x22, 0xdc, 0xbe, 0x2c, 0x04, 0x05, 0x09, 0x35, 0x4a, 0xaf,
  0x3d, 0xee, 0x7f, 0xfc, 0x12, 0x15, 0x23, 0x31, 0x77, 0x4d, 0xc2, 0xed,
  0x46, 0x14, 0x39, 0xbe, 0xc6, 0xf3, 0x16, 0xf9, 0x06, 0x1f, 0xec, 0x0f,
  0xb3, 0x07, 0x15, 0xff, 0x34, 0x54, 0xc9, 0x0c, 0xe3, 0xf7, 0x5d, 0x40,
  0xb5, 0x23, 0x59, 0xda, 0xf2, 0xfd, 0x11, 0x21, 0xe3, 0xec, 0xe8, 0xbf,
  0x1e, 0xae, 0xc3, 0x55, 0x34, 0x02, 0x1b, 0x12, 0xe8, 0xf4, 0xd1, 0x4f,
  0xfa, 0x31, 0x0d, 0xc6, 0xf3, 0x2d, 0xcf, 0xfe, 0xfc, 0x33, 0xd7, 0x27,
  0x05, 0x21, 0x6c, 0xc1, 0xb8, 0xf0, 0x33, 0x66, 0x42, 0x09, 0xf0, 0xc1,
  0x0b, 0x0f, 0x1a, 0x0b, 0xa9, 0xb7, 0x58, 0x4b, 0x10, 0xdb, 0x01, 0x2f,
  0x50, 0xce, 0x2d, 0xd6, 0xad, 0x5c, 0xb3, 0x3e, 0x07, 0x22, 0x42, 0xe1,
  0x10, 0x17, 0xf0, 0x49, 0xe1, 0x4c, 0x09, 0xf3, 0xea, 0x39, 0xe6, 0x45,
  0xef, 0x05, 0x67, 0x16, 0x01, 0x99, 0xf9, 0x06, 0x20, 0x0d, 0xef, 0x28,
  0x42, 0x59, 0xa2, 0x24, 0x91, 0xe4, 0x7f, 0x3f, 0x25, 0xd9, 0xd1, 0x38,
  0x26, 0xfe, 0x7f, 0xd3, 0xc8, 0xd4, 0x71, 0xee, 0x7f, 0x3c, 0x0a, 0x0d,
  0xd6, 0x05, 0xec, 0x37, 0xe7, 0x43, 0x13, 0xdf, 0x0c, 0x89, 0x1f, 0x0f,
  0x4d, 0x30, 0x0a, 0x0d, 0x44, 0x64, 0x1b, 0x01, 0x20, 0x2e, 0x0a, 0xf8,
  0x38, 0x1d, 0xdc, 0xcc, 0x29, 0xfe, 0xfd, 0x31, 0x3a, 0x53, 0xe8, 0xc1,
  0x16, 0xcb, 0x07, 0xc9, 0x44, 0xda, 0xde, 0xbd, 0xe9, 0xb1, 0x1d, 0xee,
  0x29, 0x6b, 0xdb, 0xf8, 0xc8, 0xab, 0xf3, 0xd2, 0xe2, 0xd8, 0xf4, 0x9a,
  0xe8, 0xc5, 0x1b, 0xe8, 0x0c, 0x06, 0xf5, 0x0e, 0xce, 0xbc, 0x05, 0xcc,
  0x05, 0x1d, 0xc9, 0x81, 0xd4, 0xf3, 0x2d, 0xca, 0xd5, 0xe6, 0xf3, 0x17,
  0xe4, 0xa6, 0xf6, 0xe5, 0xc4, 0x09, 0x27, 0xac, 0x23, 0xdc, 0x28, 0xed,
  0xf0, 0xe7, 0xcb, 0x30, 0xdd, 0xfd, 0xd9, 0xeb, 0xd9, 0x1f, 0xea, 0xcf,
  0xd9, 0xed, 0x1c, 0xb5, 0xe5, 0x02, 0xe2, 0x1f, 0xff, 0xc3, 0xfc, 0x3d,
  0xf2, 0x16, 0xdb, 0xff, 0xde, 0x27, 0x2f, 0x3e, 0xf3, 0xd5, 0x0d, 0x31,
  0xd1, 0x04, 0x09, 0xef, 0x1c, 0x36, 0xfb, 0xe8, 0xcf, 0xc9, 0x15, 0xee,
  0x3b, 0x2b, 0xc5, 0x0e, 0xcd, 0x2a, 0x4f, 0x23, 0x9c, 0x18, 0x9b, 0xdf,
  0xce, 0x1f, 0xcb, 0xa1, 0x9f, 0x42, 0x13, 0x4a, 0xa1, 0x38, 0xf3, 0x0b,
  0x65, 0xb5, 0xe9, 0xdd, 0xb3, 0xba, 0x40, 0x22, 0xcc, 0xde, 0xf7, 0x00,
  0xe3, 0xbb, 0xe6, 0xcc, 0xdb, 0xa5, 0x17, 0xf6, 0xbe, 0xb1, 0x2c, 0xf4,
  0xd1, 0xfb, 0xc9, 0xd6, 0x81, 0x53, 0xf8, 0xa3, 0xd1, 0xfc, 0xe7, 0x03,
  0x22, 0x47, 0xb8, 0x27, 0x28, 0x94, 0x84, 0x07, 0xb5, 0x40, 0xee, 0xc8,
  0x60, 0x90, 0x65, 0xb4, 0xd3, 0xcc, 0xcc, 0xb9, 0xc8, 0x3f, 0x97, 0x97,
  0x12, 0xe4, 0x88, 0x24, 0x25, 0x39, 0xb2, 0x1b, 0xc3, 0x37, 0x37, 0xeb,
  0x06, 0x1e, 0x0f, 0x2b, 0x3c, 0x22, 0xd8, 0x15, 0xe8, 0x12, 0xf5, 0xf9,
  0xe8, 0x2c, 0xef, 0xe2, 0x2c, 0xd1, 0x24, 0x3d, 0x11, 0x2b, 0xf5, 0xff,
  0x39, 0x02, 0xed, 0x16, 0xca, 0xf7, 0xe3, 0x29, 0x0e, 0x3e, 0x37, 0x28,
  0xeb, 0xe0, 0xf1, 0x37, 0xdf, 0xdf, 0x24, 0x1b, 0x04, 0xe2, 0x24, 0x32,
  0x06, 0xf7, 0x21, 0x1c, 0x22, 0x20, 0x55, 0x29, 0xe2, 0x81, 0x2a, 0x2f,
  0x4e, 0xff, 0xa8, 0xe5, 0x02, 0xd5, 0xd8, 0xb9, 0xe3, 0x23, 0x81, 0x1a,
  0x6b, 0x00, 0x8c, 0x1e, 0x8c, 0xe5, 0x85, 0x53, 0x5d, 0x54, 0x2c, 0xa6,
  0x40, 0xef, 0xf7, 0x26, 0x5c, 0x49, 0x0d, 0xec, 0x1c, 0xc8, 0xb3, 0xec,
  0xef, 0xe4, 0x1f, 0xf9, 0x21, 0x48, 0x4f, 0xcb, 0xd4, 0x49, 0x6d, 0xe6,
  0x3d, 0xf5, 0xc5, 0x30, 0x52, 0xf3, 0xd6, 0x1e, 0xe3, 0xf1, 0x76, 0xd8,
  0x23, 0xb3, 0x69, 0xeb, 0x15, 0x01, 0x41, 0xed, 0x4e, 0x4c, 0xfa, 0xf2,
  0x5c, 0xe7, 0x46, 0x45, 0x68, 0xa4, 0x64, 0x30, 0x0b, 0xce, 0x94, 0x3e,
  0x58, 0x4d, 0x3b, 0x07, 0x28, 0xfc, 0x17, 0xd9, 0x52, 0xef, 0xff, 0xf0,
  0x1e, 0xe1, 0xff, 0x00, 0x08, 0x4c, 0x2d, 0xb1, 0xfa, 0xd1, 0xdc, 0x04,
  0x65, 0x34, 0x0c, 0x15, 0xda, 0xdf, 0xcb, 0x04, 0x40, 0x4f, 0xf1, 0xdd,
  0xe2, 0x0b, 0x39, 0xf7, 0xfc, 0x08, 0x7f, 0xec, 0x46, 0xe7, 0xf5, 0xfc,
  0x22, 0xef, 0x12, 0x2b, 0x0e, 0x07, 0x60, 0xd6, 0x2c, 0xf8, 0x50, 0xd2,
  0x3b, 0xe3, 0x11, 0xd3, 0x06, 0x24, 0x27, 0xf5, 0x02, 0x1f, 0x43, 0x36,
  0x0a, 0xef, 0x65, 0xf8, 0x39, 0x07, 0xde, 0x07, 0x10, 0x18, 0xee, 0x0a,
  0xd7, 0xd2, 0x34, 0x44, 0xad, 0x48, 0xa2, 0xca, 0xf4, 0x0c, 0x1a, 0xbd,
  0xb9, 0xdf, 0x9e, 0x37, 0xbd, 0x88, 0xa0, 0xe0, 0x29, 0x2a, 0x81, 0x54,
  0xe2, 0x01, 0xc3, 0x88, 0xa2, 0x85, 0x61, 0xbe, 0x19, 0xf0, 0x8a, 0xea,
  0x0f, 0xc0, 0x21, 0xfd, 0xdf, 0xf9, 0xae, 0x27, 0xa7, 0xf7, 0xe7, 0x3f,
  0x89, 0x5f, 0xaf, 0xbf, 0xf1, 0xdd, 0x88, 0x3a, 0x3e, 0x59, 0x0e, 0x2c,
  0xdf, 0xb3, 0xde, 0x46, 0x92, 0x50, 0x66, 0x24, 0x4f, 0x8e, 0xa6, 0x94,
  0xf4, 0xec, 0xac, 0xfe, 0x46, 0xd9, 0xd9, 0x36, 0xb9, 0xa5, 0xf5, 0xd2,
  0xe6, 0xf2, 0xe0, 0xd8, 0xcd, 0xca, 0x33, 0xe0, 0xc5, 0x18, 0xac, 0x13,
  0xd9, 0x0c, 0x01, 0xcb, 0xfc, 0xe5, 0x0b, 0x08, 0x17, 0x0d, 0x19, 0xc0,
  0xe5, 0x0d, 0xe7, 0x2f, 0x02, 0xf7, 0x06, 0x34, 0xb5, 0xfd, 0x11, 0xfa,
  0x12, 0x05, 0x14, 0xf8, 0xe9, 0xc6, 0x26, 0x0d, 0x24, 0x14, 0x03, 0x44,
  0x34, 0x19, 0x11, 0x4b, 0xeb, 0x25, 0xe5, 0xf9, 0x19, 0x37, 0x34, 0x2c,
  0x1e, 0xf5, 0x1c, 0x42, 0x8f, 0x09, 0xde, 0xf9, 0x15, 0x30, 0xe5, 0x1a,
  0xd2, 0x81, 0x30, 0xfe, 0xd2, 0xc4, 0xbb, 0xe9, 0x13, 0x07, 0xc0, 0xf0,
  0xdc, 0xe0, 0x0e, 0xf9, 0x07, 0x0c, 0xee, 0xed, 0xfc, 0xef, 0x09, 0xf6,
  0x27, 0x17, 0x40, 0x19, 0x3f, 0x35, 0x0b, 0xf0, 0x4e, 0x41, 0xef, 0x21,
  0xf2, 0xe3, 0x3b, 0xfb, 0x5d, 0x05, 0x32, 0xf3, 0x23, 0xaa, 0x17, 0x13,
  0x4c, 0x6a, 0xf7, 0x38, 0xf5, 0xec, 0x0f, 0xde, 0x81, 0xe3, 0x38, 0xb4,
  0x39, 0xc4, 0xe4, 0x25, 0xc9, 0x93, 0x19, 0xfd, 0xd2, 0xd9, 0xa0, 0xa0,
  0x4b, 0xd6, 0xb9, 0xb4, 0xb4, 0x8e, 0xcd, 0xd8, 0x21, 0x59, 0xee, 0xa1,
  0x3a, 0x40, 0x2c, 0xea, 0xcf, 0xcf, 0xd8, 0xe9, 0xc1, 0x3f, 0x11, 0x15,
  0xaa, 0xf6, 0x36, 0xe4, 0x05, 0x0c, 0xc4, 0x54, 0xa5, 0x4d, 0x1b, 0x46,
  0xcd, 0x49, 0x17, 0x40, 0xc1, 0xe0, 0xf4, 0xfd, 0x25, 0x1b, 0xb4, 0xf3,
  0xdc, 0x3a, 0xd1, 0x0e, 0xb6, 0x03, 0x25, 0x3a, 0xb8, 0x94, 0xe2, 0x53,
  0x1e, 0x25, 0xbf, 0x43, 0x0e, 0x2f, 0x0b, 0x2f, 0xe4, 0xfa, 0xc7, 0x34,
  0xe2, 0xdd, 0x3b, 0x22, 0x3e, 0x5a, 0x8e, 0x25, 0x40, 0x03, 0xbc, 0x57,
  0x81, 0x49, 0x57, 0x00, 0x07, 0xc6, 0x43, 0xeb, 0xf5, 0xc8, 0x57, 0x1c,
  0x37, 0x09, 0x2c, 0xee, 0x7f, 0xc8, 0xec, 0x04, 0x2c, 0x3c, 0x15, 0x0f,
  0x1b, 0xe8, 0x57, 0xb5, 0x0d, 0xfe, 0x57, 0x07, 0x4e, 0x1f, 0xe4, 0x16,
  0x3c, 0x4a, 0x1e, 0x03, 0xbf, 0xf9, 0x19, 0xdc, 0x34, 0x4e, 0x1f, 0xc4,
  0x25, 0x0a, 0x3e, 0x2c, 0x1a, 0x44, 0x15, 0x26, 0x21, 0xfc, 0x47, 0xda,
  0xf8, 0xd5, 0xe4, 0xe3, 0x22, 0xf3, 0x2c, 0x07, 0x07, 0x68, 0xc0, 0x2e,
  0xd5, 0xdc, 0x02, 0x9b, 0xa6, 0xf9, 0x15, 0xa9, 0x4d, 0xd3, 0xcf, 0xb3,
  0xf9, 0xc8, 0xcf, 0xd6, 0x20, 0xdb, 0x5e, 0x37, 0xe7, 0xf3, 0x37, 0xf6,
  0x59, 0x56, 0xf7, 0xc6, 0x3f, 0x60, 0xd9, 0x14, 0xab, 0xd8, 0x79, 0xfb,
  0x6b, 0x0c, 0x0b, 0xc5, 0x72, 0x21, 0xb7, 0xd1, 0x33, 0x4b, 0x40, 0x10,
  0x2f, 0x03, 0x04, 0xd8, 0xe1, 0xed, 0x7b, 0xd4, 0x05, 0xd9, 0xcc, 0x40,
  0x42, 0x10, 0x29, 0xea, 0x1b, 0x33, 0x6a, 0x1a, 0x36, 0x3b, 0x16, 0xe5,
  0x7f, 0x30, 0xb1, 0xf8, 0xdf, 0xda, 0x2a, 0xab, 0x22, 0xbe, 0x56, 0xc9,
  0x4c, 0x21, 0x63, 0xd8, 0x75, 0x2b, 0xfd, 0xea, 0x45, 0x48, 0x2e, 0x10,
  0x9d, 0xc9, 0x3c, 0xae, 0xa1, 0xe8, 0x2a, 0x9c, 0x21, 0xa0, 0x0b, 0xd3,
  0xf6, 0x81, 0xa7, 0xcd, 0x9a, 0x2d, 0x56, 0xcc, 0xc8, 0xe4, 0x50, 0x0e,
  0xfb, 0xec, 0xa0, 0xcf, 0x26, 0xdb, 0xef, 0xc5, 0xfb, 0xd6, 0x5d, 0xe3,
  0x24, 0xd3, 0x4b, 0xbf, 0xf8, 0xf1, 0x20, 0x42, 0xc2, 0xd2, 0x00, 0xfe,
  0x34, 0x5b, 0x6e, 0x35, 0xff, 0xb6, 0x3e, 0x0c, 0x79, 0x1d, 0xa4, 0x40,
  0x47, 0x54, 0xda, 0x07, 0xe3, 0x4d, 0x0d, 0x00, 0x11, 0x3c, 0x6c, 0xd9,
  0x53, 0x5d, 0x07, 0x29, 0xdc, 0x68, 0x48, 0xf9, 0x2e, 0x39, 0x0a, 0xd0,
  0x25, 0xcb, 0x0f, 0x44, 0x1f, 0xc3, 0xa7, 0xe2, 0xc8, 0xeb, 0x46, 0x31,
  0xe6, 0x4d, 0x66, 0x0c, 0xfa, 0x38, 0x0c, 0xf7, 0x12, 0xef, 0x39, 0x4f,
  0xb1, 0xc7, 0x43, 0xe0, 0x42, 0x16, 0x03, 0x01, 0x7a, 0x5b, 0x1d, 0x4d,
  0x31, 0xd2, 0x01, 0xf4, 0xfe, 0x71, 0xdd, 0xee, 0xe3, 0x20, 0x0c, 0xd3,
  0xb5, 0x29, 0xdc, 0x1e, 0x13, 0x42, 0xdf, 0x3a, 0xaf, 0xb6, 0x59, 0x19,
  0x20, 0xda, 0x81, 0x2a, 0xe7, 0x22, 0xdc, 0xb5, 0xee, 0x1b, 0xb1, 0xd6,
  0x15, 0x5e, 0x21, 0xdb, 0xe2, 0xfb, 0xff, 0xff, 0x04, 0x00, 0x00, 0x00,
  0x40, 0x00, 0x00, 0x00, 0xf6, 0x00, 0x00, 0x00, 0x3e, 0x01, 0x00, 0x00,
  0x3e, 0xff, 0xff, 0xff, 0x8d, 0xfb, 0xff, 0xff, 0xbd, 0xff, 0xff, 0xff,
  0xbf, 0x00, 0x00, 0x00, 0x41, 0x02, 0x00, 0x00, 0xe6, 0x02, 0x00, 0x00,
  0xfd, 0xfe, 0xff, 0xff, 0x36, 0xfb, 0xff, 0xff, 0xc4, 0xfd, 0xff, 0xff,
  0x89, 0x00, 0x00, 0x00, 0x24, 0xff, 0xff, 0xff, 0x09, 0x02, 0x00, 0x00,
  0xb5, 0xfd, 0xff, 0xff, 0x32, 0x03, 0x00, 0x00, 0x2e, 0xfc, 0xff, 0xff,
  0x04, 0x00, 0x00, 0x00, 0x40, 0x01, 0x00, 0x00, 0x00, 0x12, 0x95, 0x3b,
  0x47, 0x68, 0xed, 0x12, 0x1f, 0xbd, 0x7e, 0x54, 0xcc, 0xb0, 0xee, 0xb8,
  0x7f, 0xd2, 0xd5, 0x28, 0xdc, 0x1b, 0x98, 0xba, 0xcf, 0x59, 0xd0, 0xf6,
  0x1a, 0x39, 0xad, 0x22, 0xe6, 0xb9, 0x0c, 0x2c, 0x6c, 0x81, 0xae, 0x9f,
  0x81, 0x58, 0x89, 0x99, 0x86, 0x7c, 0x4a, 0xec, 0x8e, 0x85, 0xdb, 0x8e,
  0x14, 0x98, 0xa7, 0xaa, 0xe7, 0xc5, 0x07, 0x43, 0xdd, 0xea, 0x36, 0xf8,
  0x11, 0xf2, 0x36, 0x33, 0xf1, 0xd3, 0x7f, 0xde, 0x0e, 0xfe, 0x06, 0x16,
  0xfb, 0xf2, 0x0d, 0x02, 0xdd, 0xbe, 0x09, 0xb6, 0x43, 0xa1, 0x16, 0xb5,
  0xe5, 0x0e, 0x81, 0x0a, 0x24, 0x5f, 0xab, 0xe3, 0x0e, 0x26, 0x50, 0xe9,
  0x0b, 0x57, 0x97, 0x7f, 0xf0, 0xc9, 0x9a, 0xce, 0x03, 0x13, 0x25, 0x4d,
  0x0e, 0xad, 0xce, 0x3e, 0xfd, 0x3c, 0x00, 0xfb, 0xf2, 0x0a, 0xda, 0xcf,
  0x42, 0xf1, 0xf7, 0x16, 0x05, 0x1d, 0x81, 0xfd, 0x30, 0x27, 0x3f, 0xb6,
  0xe5, 0x15, 0x32, 0x33, 0x05, 0x96, 0x26, 0x24, 0xd2, 0x8d, 0xf6, 0xf4,
  0xd0, 0x17, 0xd8, 0x18, 0x81, 0xb8, 0x88, 0x83, 0x9a, 0x34, 0xba, 0x8b,
  0xd5, 0xc2, 0x55, 0x14, 0xfd, 0x26, 0xeb, 0x2d, 0x1b, 0x5f, 0x81, 0xc7,
  0x1a, 0xcc, 0x06, 0xa9, 0x36, 0x46, 0x5e, 0xfe, 0xef, 0x1b, 0x1e, 0x32,
  0x31, 0xe8, 0xe6, 0xff, 0x3b, 0x47, 0xf4, 0xe0, 0x22, 0xec, 0xcd, 0xc8,
  0x7f, 0xf5, 0xfe, 0x01, 0xf2, 0x2c, 0xd5, 0xfc, 0x27, 0xe8, 0xd6, 0x24,
  0xee, 0x47, 0x81, 0x1d, 0xdc, 0x05, 0x04, 0x05, 0xc6, 0x19, 0xd8, 0x34,
  0x24, 0x3f, 0xb2, 0x7f, 0x4f, 0xe8, 0xb8, 0xe6, 0x63, 0xca, 0xb4, 0xed,
  0x09, 0x4f, 0xb9, 0x59, 0x99, 0xf5, 0xeb, 0xc1, 0x2e, 0xf1, 0xdc, 0x37,
  0x50, 0xc5, 0x04, 0x3c, 0xbe, 0x3a, 0xca, 0xfa, 0x24, 0x26, 0x47, 0xe6,
  0x81, 0x42, 0x88, 0x57, 0xa5, 0xfd, 0xdc, 0xa3, 0x3a, 0x5c, 0x25, 0x0d,
  0xb8, 0xb4, 0x57, 0xf6, 0x91, 0xd4, 0x81, 0x29, 0xd8, 0x38, 0xcf, 0xe7,
  0x0f, 0x06, 0x10, 0xe4, 0x23, 0xe5, 0x2c, 0x22, 0x16, 0x8b, 0x7f, 0xf5,
  0x43, 0x28, 0xe1, 0x24, 0x21, 0xe0, 0xe7, 0xd2, 0x38, 0x2b, 0x4a, 0x91,
  0x41, 0x81, 0xe5, 0x75, 0x20, 0x8f, 0x62, 0xce, 0x78, 0x48, 0x2d, 0x0c,
  0x07, 0xe5, 0x1c, 0xd9, 0x7a, 0xfd, 0xff, 0xff, 0x04, 0x00, 0x00, 0x00,
  0x40, 0x00, 0x00, 0x00, 0x9b, 0x01, 0x00, 0x00, 0x70, 0xfd, 0xff, 0xff,
  0x00, 0x00, 0x00, 0x00, 0x91, 0x02, 0x00, 0x00, 0x92, 0x02, 0x00, 0x00,
  0x33, 0xfd, 0xff, 0xff, 0xce, 0xfc, 0xff, 0xff, 0xca, 0xf7, 0xff, 0xff,
  0xd3, 0xf9, 0xff, 0xff, 0x94, 0xff, 0xff, 0xff, 0x6f, 0x03, 0x00, 0x00,
  0x7d, 0xfc, 0xff, 0xff, 0x34, 0x01, 0x00, 0x00, 0x1d, 0xfd, 0xff, 0xff,
  0x5a, 0x03, 0x00, 0x00, 0x1c, 0x02, 0x00, 0x00, 0xc6, 0xfd, 0xff, 0xff,
  0x04, 0x00, 0x00, 0x00, 0x50, 0x00, 0x00, 0x00, 0xc5, 0x32, 0x34, 0x2b,
  0xba, 0xb5, 0x43, 0xef, 0x76, 0x20, 0x81, 0x24, 0xe0, 0x15, 0x18, 0x1d,
  0xce, 0x0c, 0x09, 0x23, 0x0b, 0xe5, 0x0e, 0x09, 0xad, 0x81, 0x06, 0xfd,
  0x44, 0xec, 0x19, 0x19, 0x31, 0x31, 0xbd, 0xcf, 0xc9, 0x2f, 0x26, 0x2d,
  0xf2, 0x1b, 0x61, 0x3f, 0x7f, 0xd0, 0xc1, 0xc6, 0x35, 0x04, 0x09, 0x1c,
  0xf1, 0x14, 0xdd, 0x14, 0xdb, 0x11, 0xa5, 0xca, 0x81, 0xf7, 0x20, 0x08,
  0x0f, 0xf4, 0x32, 0xde, 0x2a, 0xa5, 0xbc, 0x1f, 0x26, 0xa8, 0xcd, 0x81,
  0xe9, 0x2a, 0xf7, 0xd0, 0x22, 0xfe, 0xff, 0xff, 0x04, 0x00, 0x00, 0x00,
  0x14, 0x00, 0x00, 0x00, 0xff, 0xff, 0xff, 0xff, 0x27, 0x03, 0x00, 0x00,
  0x4a, 0xf8, 0xff, 0xff, 0x85, 0x08, 0x00, 0x00, 0x79, 0xed, 0xff, 0xff,
  0x42, 0xfe, 0xff, 0xff, 0x04, 0x00, 0x00, 0x00, 0x0c, 0x00, 0x00, 0x00,
  0xff, 0xff, 0xff, 0xff, 0x14, 0x00, 0x00, 0x00, 0x10, 0x00, 0x00, 0x00,
  0x5a, 0xfe, 0xff, 0xff, 0x04, 0x00, 0x00, 0x00, 0x0c, 0x00, 0x00, 0x00,
  0xff, 0xff, 0xff, 0xff, 0x2b, 0x00, 0x00, 0x00, 0x10, 0x00, 0x00, 0x00,
  0x72, 0xfe, 0xff, 0xff, 0x04, 0x00, 0x00, 0x00, 0x04, 0x00, 0x00, 0x00,
  0x01, 0x00, 0x00, 0x00, 0x82, 0xfe, 0xff, 0xff, 0x04, 0x00, 0x00, 0x00,
  0x0c, 0x00, 0x00, 0x00, 0xff, 0xff, 0xff, 0xff, 0x57, 0x00, 0x00, 0x00,
  0x10, 0x00, 0x00, 0x00, 0x9a, 0xfe, 0xff, 0xff, 0x04, 0x00, 0x00, 0x00,
  0x04, 0x00, 0x00, 0x00, 0xfd, 0xff, 0xff, 0xff, 0xd8, 0xe7, 0xff, 0xff,
  0xdc, 0xe7, 0xff, 0xff, 0xe0, 0xe7, 0xff, 0xff, 0x0f, 0x00, 0x00, 0x00,
  0x4d, 0x4c, 0x49, 0x52, 0x20, 0x43, 0x6f, 0x6e, 0x76, 0x65, 0x72, 0x74,
  0x65, 0x64, 0x2e, 0x00, 0x01, 0x00, 0x00, 0x00, 0x14, 0x00, 0x00, 0x00,
  0x00, 0x00, 0x0e, 0x00, 0x18, 0x00, 0x14, 0x00, 0x10, 0x00, 0x0c, 0x00,
  0x08, 0x00, 0x04, 0x00, 0x0e, 0x00, 0x00, 0x00, 0x14, 0x00, 0x00, 0x00,
  0x1c, 0x00, 0x00, 0x00, 0x74, 0x03, 0x00, 0x00, 0x78, 0x03, 0x00, 0x00,
  0x80, 0x03, 0x00, 0x00, 0x04, 0x00, 0x00, 0x00, 0x6d, 0x61, 0x69, 0x6e,
  0x00, 0x00, 0x00, 0x00, 0x0e, 0x00, 0x00, 0x00, 0x2c, 0x03, 0x00, 0x00,
  0xc8, 0x02, 0x00, 0x00, 0x90, 0x02, 0x00, 0x00, 0x54, 0x02, 0x00, 0x00,
  0x00, 0x02, 0x00, 0x00, 0xc8, 0x01, 0x00, 0x00, 0x98, 0x01, 0x00, 0x00,
  0x50, 0x01, 0x00, 0x00, 0x28, 0x01, 0x00, 0x00, 0xf4, 0x00, 0x00, 0x00,
  0xb4, 0x00, 0x00, 0x00, 0x70, 0x00, 0x00, 0x00, 0x38, 0x00, 0x00, 0x00,
  0x04, 0x00, 0x00, 0x00, 0x7a, 0xfd, 0xff, 0xff, 0x14, 0x00, 0x00, 0x00,
  0x00, 0x00, 0x00, 0x09, 0x14, 0x00, 0x00, 0x00, 0x18, 0x00, 0x00, 0x00,
  0x07, 0x00, 0x00, 0x00, 0x5a, 0xff, 0xff, 0xff, 0x00, 0x00, 0x80, 0x3f,
  0x01, 0x00, 0x00, 0x00, 0x1c, 0x00, 0x00, 0x00, 0x01, 0x00, 0x00, 0x00,
  0x1b, 0x00, 0x00, 0x00, 0xaa, 0xfd, 0xff, 0xff, 0x14, 0x00, 0x00, 0x00,
  0x00, 0x00, 0x00, 0x08, 0x10, 0x00, 0x00, 0x00, 0x14, 0x00, 0x00, 0x00,
  0x06, 0x00, 0x00, 0x00, 0xb8, 0xe8, 0xff, 0xff, 0x01, 0x00, 0x00, 0x00,
  0x1b, 0x00, 0x00, 0x00, 0x03, 0x00, 0x00, 0x00, 0x1a, 0x00, 0x00, 0x00,
  0x08, 0x00, 0x00, 0x00, 0x07, 0x00, 0x00, 0x00, 0x9a, 0xfe, 0xff, 0xff,
  0x1c, 0x00, 0x00, 0x00, 0x00, 0x00, 0x00, 0x08, 0x1c, 0x00, 0x00, 0x00,
  0x20, 0x00, 0x00, 0x00, 0x06, 0x00, 0x00, 0x00, 0x00, 0x00, 0x06, 0x00,
  0x08, 0x00, 0x07, 0x00, 0x06, 0x00, 0x00, 0x00, 0x00, 0x00, 0x00, 0x01,
  0x01, 0x00, 0x00, 0x00, 0x1a, 0x00, 0x00, 0x00, 0x03, 0x00, 0x00, 0x00,
  0x19, 0x00, 0x00, 0x00, 0x0a, 0x00, 0x00, 0x00, 0x09, 0x00, 0x00, 0x00,
  0xda, 0xfe, 0xff, 0xff, 0x1c, 0x00, 0x00, 0x00, 0x00, 0x00, 0x00, 0x0a,
  0x1c, 0x00, 0x00, 0x00, 0x20, 0x00, 0x00, 0x00, 0x05, 0x00, 0x00, 0x00,
  0x00, 0x00, 0x06, 0x00, 0x08, 0x00, 0x04, 0x00, 0x06, 0x00, 0x00, 0x00,
  0xff, 0xff, 0xff, 0xff, 0x01, 0x00, 0x00, 0x00, 0x19, 0x00, 0x00, 0x00,
  0x02, 0x00, 0x00, 0x00, 0x18, 0x00, 0x00, 0x00, 0x00, 0x00, 0x00, 0x00,
  0x5a, 0xfe, 0xff, 0xff, 0x14, 0x00, 0x00, 0x00, 0x00, 0x00, 0x00, 0x1b,
  0x10, 0x00, 0x00, 0x00, 0x14, 0x00, 0x00, 0x00, 0x04, 0x00, 0x00, 0x00,
  0x68, 0xe9, 0xff, 0xff, 0x01, 0x00, 0x00, 0x00, 0x18, 0x00, 0x00, 0x00,
  0x02, 0x00, 0x00, 0x00, 0x17, 0x00, 0x00, 0x00, 0x04, 0x00, 0x00, 0x00,
  0xba, 0xfe, 0xff, 0xff, 0x0c, 0x00, 0x00, 0x00, 0x10, 0x00, 0x00, 0x00,
  0x02, 0x00, 0x00, 0x00, 0x01, 0x00, 0x00, 0x00, 0x17, 0x00, 0x00, 0x00,
  0x02, 0x00, 0x00, 0x00, 0x16, 0x00, 0x00, 0x00, 0x06, 0x00, 0x00, 0x00,
  0xae, 0xfe, 0xff, 0xff, 0x14, 0x00, 0x00, 0x00, 0x00, 0x00, 0x00, 0x01,
  0x20, 0x00, 0x00, 0x00, 0x24, 0x00, 0x00, 0x00, 0x01, 0x00, 0x00, 0x00,
  0xa0, 0xfe, 0xff, 0xff, 0x00, 0x00, 0x00, 0x01, 0x01, 0x00, 0x00, 0x00,
  0x02, 0x00, 0x00, 0x00, 0x00, 0x00, 0x00, 0x01, 0x01, 0x00, 0x00, 0x00,
  0x16, 0x00, 0x00, 0x00, 0x03, 0x00, 0x00, 0x00, 0x15, 0x00, 0x00, 0x00,
  0x0c, 0x00, 0x00, 0x00, 0x0b, 0x00, 0x00, 0x00, 0x92, 0xfe, 0xff, 0xff,
  0x10, 0x00, 0x00, 0x00, 0x00, 0x00, 0x00, 0x34, 0x0c, 0x00, 0x00, 0x00,
  0x10, 0x00, 0x00, 0x00, 0xfc, 0xe9, 0xff, 0xff, 0x01, 0x00, 0x00, 0x00,
  0x15, 0x00, 0x00, 0x00, 0x02, 0x00, 0x00, 0x00, 0x14, 0x00, 0x00, 0x00,
  0x02, 0x00, 0x00, 0x00, 0x4e, 0xff, 0xff, 0xff, 0x0c, 0x00, 0x00, 0x00,
  0x10, 0x00, 0x00, 0x00, 0x02, 0x00, 0x00, 0x00, 0x01, 0x00, 0x00, 0x00,
  0x14, 0x00, 0x00, 0x00, 0x02, 0x00, 0x00, 0x00, 0x13, 0x00, 0x00, 0x00,
  0x05, 0x00, 0x00, 0x00, 0x00, 0x00, 0x0e, 0x00, 0x1a, 0x00, 0x14, 0x00,
  0x10, 0x00, 0x0c, 0x00, 0x0b, 0x00, 0x04, 0x00, 0x0e, 0x00, 0x00, 0x00,
  0x24, 0x00, 0x00, 0x00, 0x00, 0x00, 0x00, 0x05, 0x34, 0x00, 0x00, 0x00,
  0x38, 0x00, 0x00, 0x00, 0x03, 0x00, 0x00, 0x00, 0x00, 0x00, 0x0e, 0x00,
  0x18, 0x00, 0x17, 0x00, 0x10, 0x00, 0x0c, 0x00, 0x08, 0x00, 0x04, 0x00,
  0x0e, 0x00, 0x00, 0x00, 0x01, 0x00, 0x00, 0x00, 0x02, 0x00, 0x00, 0x00,
  0x01, 0x00, 0x00, 0x00, 0x02, 0x00, 0x00, 0x00, 0x00, 0x00, 0x00, 0x01,
  0x01, 0x00, 0x00, 0x00, 0x13, 0x00, 0x00, 0x00, 0x01, 0x00, 0x00, 0x00,
  0x12, 0x00, 0x00, 0x00, 0x42, 0xff, 0xff, 0xff, 0x10, 0x00, 0x00, 0x00,
  0x00, 0x00, 0x00, 0x34, 0x0c, 0x00, 0x00, 0x00, 0x10, 0x00, 0x00, 0x00,
  0xac, 0xea, 0xff, 0xff, 0x01, 0x00, 0x00, 0x00, 0x12, 0x00, 0x00, 0x00,
  0x02, 0x00, 0x00, 0x00, 0x11, 0x00, 0x00, 0x00, 0x04, 0x00, 0x00, 0x00,
  0x00, 0x00, 0x0a, 0x00, 0x10, 0x00, 0x0c, 0x00, 0x08, 0x00, 0x04, 0x00,
  0x0a, 0x00, 0x00, 0x00, 0x0c, 0x00, 0x00, 0x00, 0x10, 0x00, 0x00, 0x00,
  0x02, 0x00, 0x00, 0x00, 0x01, 0x00, 0x00, 0x00, 0x11, 0x00, 0x00, 0x00,
  0x02, 0x00, 0x00, 0x00, 0x10, 0x00, 0x00, 0x00, 0x03, 0x00, 0x00, 0x00,
  0x00, 0x00, 0x0e, 0x00, 0x18, 0x00, 0x14, 0x00, 0x10, 0x00, 0x0c, 0x00,
  0x0b, 0x00, 0x04, 0x00, 0x0e, 0x00, 0x00, 0x00, 0x20, 0x00, 0x00, 0x00,
  0x00, 0x00, 0x00, 0x01, 0x2c, 0x00, 0x00, 0x00, 0x30, 0x00, 0x00, 0x00,
  0x01, 0x00, 0x00, 0x00, 0x0c, 0x00, 0x14, 0x00, 0x13, 0x00, 0x0c, 0x00,
  0x08, 0x00, 0x07, 0x00, 0x0c, 0x00, 0x00, 0x00, 0x00, 0x00, 0x00, 0x01,
  0x01, 0x00, 0x00, 0x00, 0x02, 0x00, 0x00, 0x00, 0x00, 0x00, 0x00, 0x01,
  0x01, 0x00, 0x00, 0x00, 0x10, 0x00, 0x00, 0x00, 0x03, 0x00, 0x00, 0x00,
  0x0f, 0x00, 0x00, 0x00, 0x0e, 0x00, 0x00, 0x00, 0x0d, 0x00, 0x00, 0x00,
  0x00, 0x00, 0x0e, 0x00, 0x14, 0x00, 0x00, 0x00, 0x10, 0x00, 0x0c, 0x00,
  0x0b, 0x00, 0x04, 0x00, 0x0e, 0x00, 0x00, 0x00, 0x10, 0x00, 0x00, 0x00,
  0x00, 0x00, 0x00, 0x34, 0x0c, 0x00, 0x00, 0x00, 0x10, 0x00, 0x00, 0x00,
  0x78, 0xeb, 0xff, 0xff, 0x01, 0x00, 0x00, 0x00, 0x0f, 0x00, 0x00, 0x00,
  0x02, 0x00, 0x00, 0x00, 0x01, 0x00, 0x00, 0x00, 0x02, 0x00, 0x00, 0x00,
  0x01, 0x00, 0x00, 0x00, 0x1c, 0x00, 0x00, 0x00, 0x02, 0x00, 0x00, 0x00,
  0x00, 0x00, 0x00, 0x00, 0x01, 0x00, 0x00, 0x00, 0x1d, 0x00, 0x00, 0x00,
  0x10, 0x15, 0x00, 0x00, 0x74, 0x14, 0x00, 0x00, 0x34, 0x14, 0x00, 0x00,
  0xc4, 0x13, 0x00, 0x00, 0x88, 0x13, 0x00, 0x00, 0x2c, 0x13, 0x00, 0x00,
  0xd4, 0x12, 0x00, 0x00, 0x38, 0x12, 0x00, 0x00, 0x9c, 0x11, 0x00, 0x00,
  0x68, 0x10, 0x00, 0x00, 0x44, 0x0f, 0x00, 0x00, 0xb0, 0x0d, 0x00, 0x00,
  0x84, 0x0c, 0x00, 0x00, 0xf0, 0x0a, 0x00, 0x00, 0xc4, 0x09, 0x00, 0x00,
  0x28, 0x09, 0x00, 0x00, 0x1c, 0x08, 0x00, 0x00, 0x3c, 0x07, 0x00, 0x00,
  0x9c, 0x06, 0x00, 0x00, 0x08, 0x06, 0x00, 0x00, 0x70, 0x05, 0x00, 0x00,
  0xd0, 0x04, 0x00, 0x00, 0xc4, 0x03, 0x00, 0x00, 0xe4, 0x02, 0x00, 0x00,
  0x54, 0x02, 0x00, 0x00, 0xd0, 0x01, 0x00, 0x00, 0x1c, 0x01, 0x00, 0x00,
  0x80, 0x00, 0x00, 0x00, 0x04, 0x00, 0x00, 0x00, 0x7a, 0xeb, 0xff, 0xff,
  0x00, 0x00, 0x00, 0x01, 0x18, 0x00, 0x00, 0x00, 0x20, 0x00, 0x00, 0x00,
  0x3c, 0x00, 0x00, 0x00, 0x1d, 0x00, 0x00, 0x00, 0x00, 0x00, 0x00, 0x09,
  0x50, 0x00, 0x00, 0x00, 0x02, 0x00, 0x00, 0x00, 0xff, 0xff, 0xff, 0xff,
  0x05, 0x00, 0x00, 0x00, 0x64, 0xeb, 0xff, 0xff, 0x08, 0x00, 0x00, 0x00,
  0x10, 0x00, 0x00, 0x00, 0x01, 0x00, 0x00, 0x00, 0x80, 0xff, 0xff, 0xff,
  0xff, 0xff, 0xff, 0xff, 0x01, 0x00, 0x00, 0x00, 0x00, 0x00, 0x80, 0x3b,
  0x1b, 0x00, 0x00, 0x00, 0x53, 0x74, 0x61, 0x74, 0x65, 0x66, 0x75, 0x6c,
  0x50, 0x61, 0x72, 0x74, 0x69, 0x74, 0x69, 0x6f, 0x6e, 0x65, 0x64, 0x43,
  0x61, 0x6c, 0x6c, 0x5f, 0x31, 0x3a, 0x30, 0x00, 0x02, 0x00, 0x00, 0x00,
  0x01, 0x00, 0x00, 0x00, 0x05, 0x00, 0x00, 0x00, 0xf2, 0xeb, 0xff, 0xff,
  0x00, 0x00, 0x00, 0x01, 0x18, 0x00, 0x00, 0x00, 0x20, 0x00, 0x00, 0x00,
  0x40, 0x00, 0x00, 0x00, 0x1c, 0x00, 0x00, 0x00, 0x00, 0x00, 0x00, 0x09,
  0x70, 0x00, 0x00, 0x00, 0x02, 0x00, 0x00, 0x00, 0xff, 0xff, 0xff, 0xff,
  0x05, 0x00, 0x00, 0x00, 0xdc, 0xeb, 0xff, 0xff, 0x08, 0x00, 0x00, 0x00,
  0x14, 0x00, 0x00, 0x00, 0x01, 0x00, 0x00, 0x00, 0x08, 0x00, 0x00, 0x00,
  0x00, 0x00, 0x00, 0x00, 0x00, 0x00, 0x00, 0x00, 0x01, 0x00, 0x00, 0x00,
  0xcc, 0x5f, 0x2c, 0x3d, 0x34, 0x00, 0x00, 0x00, 0x63, 0x6e, 0x6e, 0x31,
  0x36, 0x5f, 0x31, 0x2f, 0x64, 0x65, 0x6e, 0x73, 0x65, 0x5f, 0x31, 0x39,
  0x5f, 0x31, 0x2f, 0x4d, 0x61, 0x74, 0x4d, 0x75, 0x6c, 0x3b, 0x63, 0x6e,
  0x6e, 0x31, 0x36, 0x5f, 0x31, 0x2f, 0x64, 0x65, 0x6e, 0x73, 0x65, 0x5f,
  0x31, 0x39, 0x5f, 0x31, 0x2f, 0x42, 0x69, 0x61, 0x73, 0x41, 0x64, 0x64,
  0x00, 0x00, 0x00, 0x00, 0x02, 0x00, 0x00, 0x00, 0x01, 0x00, 0x00, 0x00,
  0x05, 0x00, 0x00, 0x00, 0x8a, 0xec, 0xff, 0xff, 0x00, 0x00, 0x00, 0x01,
  0x18, 0x00, 0x00, 0x00, 0x20, 0x00, 0x00, 0x00, 0x40, 0x00, 0x00, 0x00,
  0x1b, 0x00, 0x00, 0x00, 0x00, 0x00, 0x00, 0x09, 0x88, 0x00, 0x00, 0x00,
  0x02, 0x00, 0x00, 0x00, 0xff, 0xff, 0xff, 0xff, 0x10, 0x00, 0x00, 0x00,
  0x74, 0xec, 0xff, 0xff, 0x08, 0x00, 0x00, 0x00, 0x14, 0x00, 0x00, 0x00,
  0x01, 0x00, 0x00, 0x00, 0x80, 0xff, 0xff, 0xff, 0xff, 0xff, 0xff, 0xff,
  0x00, 0x00, 0x00, 0x00, 0x01, 0x00, 0x00, 0x00, 0x3f, 0x11, 0x71, 0x3c,
  0x4c, 0x00, 0x00, 0x00, 0x63, 0x6e, 0x6e, 0x31, 0x36, 0x5f, 0x31, 0x2f,
  0x64, 0x65, 0x6e, 0x73, 0x65, 0x5f, 0x31, 0x38, 0x5f, 0x31, 0x2f, 0x4d,
  0x61, 0x74, 0x4d, 0x75, 0x6c, 0x3b, 0x63, 0x6e, 0x6e, 0x31, 0x36, 0x5f,
  0x31, 0x2f, 0x64, 0x65, 0x6e, 0x73, 0x65, 0x5f, 0x31, 0x38, 0x5f, 0x31,
  0x2f, 0x52, 0x65, 0x6c, 0x75, 0x3b, 0x63, 0x6e, 0x6e, 0x31, 0x36, 0x5f,
  0x31, 0x2f, 0x64, 0x65, 0x6e, 0x73, 0x65, 0x5f, 0x31, 0x38, 0x5f, 0x31,
  0x2f, 0x42, 0x69, 0x61, 0x73, 0x41, 0x64, 0x64, 0x00, 0x00, 0x00, 0x00,
  0x02, 0x00, 0x00, 0x00, 0x01, 0x00, 0x00, 0x00, 0x10, 0x00, 0x00, 0x00,
  0x3a, 0xed, 0xff, 0xff, 0x00, 0x00, 0x00, 0x01, 0x18, 0x00, 0x00, 0x00,
  0x20, 0x00, 0x00, 0x00, 0x40, 0x00, 0x00, 0x00, 0x1a, 0x00, 0x00, 0x00,
  0x00, 0x00, 0x00, 0x09, 0x58, 0x00, 0x00, 0x00, 0x02, 0x00, 0x00, 0x00,
  0xff, 0xff, 0xff, 0xff, 0x14, 0x00, 0x00, 0x00, 0x24, 0xed, 0xff, 0xff,
  0x08, 0x00, 0x00, 0x00, 0x14, 0x00, 0x00, 0x00, 0x01, 0x00, 0x00, 0x00,
  0x80, 0xff, 0xff, 0xff, 0xff, 0xff, 0xff, 0xff, 0x00, 0x00, 0x00, 0x00,
  0x01, 0x00, 0x00, 0x00, 0xc8, 0xf1, 0x5e, 0x3c, 0x1e, 0x00, 0x00, 0x00,
  0x63, 0x6e, 0x6e, 0x31, 0x36, 0x5f, 0x31, 0x2f, 0x63, 0x6f, 0x6e, 0x63,
  0x61, 0x74, 0x65, 0x6e, 0x61, 0x74, 0x65, 0x5f, 0x39, 0x5f, 0x31, 0x2f,
  0x63, 0x6f, 0x6e, 0x63, 0x61, 0x74, 0x00, 0x00, 0x02, 0x00, 0x00, 0x00,
  0x01, 0x00, 0x00, 0x00, 0x14, 0x00, 0x00, 0x00, 0xba, 0xed, 0xff, 0xff,
  0x00, 0x00, 0x00, 0x01, 0x18, 0x00, 0x00, 0x00, 0x20, 0x00, 0x00, 0x00,
  0x40, 0x00, 0x00, 0x00, 0x19, 0x00, 0x00, 0x00, 0x00, 0x00, 0x00, 0x09,
  0x64, 0x00, 0x00, 0x00, 0x02, 0x00, 0x00, 0x00, 0xff, 0xff, 0xff, 0xff,
  0x10, 0x00, 0x00, 0x00, 0xa4, 0xed, 0xff, 0xff, 0x08, 0x00, 0x00, 0x00,
  0x14, 0x00, 0x00, 0x00, 0x01, 0x00, 0x00, 0x00, 0x80, 0xff, 0xff, 0xff,
  0xff, 0xff, 0xff, 0xff, 0x00, 0x00, 0x00, 0x00, 0x01, 0x00, 0x00, 0x00,
  0xc8, 0xf1, 0x5e, 0x3c, 0x29, 0x00, 0x00, 0x00, 0x63, 0x6e, 0x6e, 0x31,
  0x36, 0x5f, 0x31, 0x2f, 0x67, 0x6c, 0x6f, 0x62, 0x61, 0x6c, 0x5f, 0x61,
  0x76, 0x65, 0x72, 0x61, 0x67, 0x65, 0x5f, 0x70, 0x6f, 0x6f, 0x6c, 0x69,
  0x6e, 0x67, 0x31, 0x64, 0x5f, 0x31, 0x5f, 0x31, 0x2f, 0x4d, 0x65, 0x61,
  0x6e, 0x00, 0x00, 0x00, 0x02, 0x00, 0x00, 0x00, 0x01, 0x00, 0x00, 0x00,
  0x10, 0x00, 0x00, 0x00, 0x46, 0xee, 0xff, 0xff, 0x00, 0x00, 0x00, 0x01,
  0x18, 0x00, 0x00, 0x00, 0x24, 0x00, 0x00, 0x00, 0x40, 0x00, 0x00, 0x00,
  0x18, 0x00, 0x00, 0x00, 0x00, 0x00, 0x00, 0x09, 0xb0, 0x00, 0x00, 0x00,
  0x03, 0x00, 0x00, 0x00, 0xff, 0xff, 0xff, 0xff, 0x14, 0x00, 0x00, 0x00,
  0x10, 0x00, 0x00, 0x00, 0x34, 0xee, 0xff, 0xff, 0x08, 0x00, 0x00, 0x00,
  0x10, 0x00, 0x00, 0x00, 0x01, 0x00, 0x00, 0x00, 0x80, 0xff, 0xff, 0xff,
  0xff, 0xff, 0xff, 0xff, 0x01, 0x00, 0x00, 0x00, 0x20, 0x33, 0xb7, 0x3d,
  0x74, 0x00, 0x00, 0x00, 0x63, 0x6e, 0x6e, 0x31, 0x36, 0x5f, 0x31, 0x2f,
  0x63, 0x6f, 0x6e, 0x76, 0x31, 0x64, 0x5f, 0x33, 0x5f, 0x31, 0x2f, 0x52,
  0x65, 0x6c, 0x75, 0x3b, 0x63, 0x6e, 0x6e, 0x31, 0x36, 0x5f, 0x31, 0x2f,
  0x63, 0x6f, 0x6e, 0x76, 0x31, 0x64, 0x5f, 0x33, 0x5f, 0x31, 0x2f, 0x42,
  0x69, 0x61, 0x73, 0x41, 0x64, 0x64, 0x3b, 0x63, 0x6e, 0x6e, 0x31, 0x36,
  0x5f, 0x31, 0x2f, 0x63, 0x6f, 0x6e, 0x76, 0x31, 0x64, 0x5f, 0x33, 0x5f,
  0x31, 0x2f, 0x63, 0x6f, 0x6e, 0x76, 0x6f, 0x6c, 0x75, 0x74, 0x69, 0x6f,
  0x6e, 0x2f, 0x53, 0x71, 0x75, 0x65, 0x65, 0x7a, 0x65, 0x3b, 0x63, 0x6e,
  0x6e, 0x31, 0x36, 0x5f, 0x31, 0x2f, 0x63, 0x6f, 0x6e, 0x76, 0x31, 0x64,
  0x5f, 0x33, 0x5f, 0x31, 0x2f, 0x53, 0x71, 0x75, 0x65, 0x65, 0x7a, 0x65,
  0x00, 0x00, 0x00, 0x00, 0x03, 0x00, 0x00, 0x00, 0x01, 0x00, 0x00, 0x00,
  0x14, 0x00, 0x00, 0x00, 0x10, 0x00, 0x00, 0x00, 0x22, 0xef, 0xff, 0xff,
  0x00, 0x00, 0x00, 0x01, 0x18, 0x00, 0x00, 0x00, 0x28, 0x00, 0x00, 0x00,
  0x48, 0x00, 0x00, 0x00, 0x17, 0x00, 0x00, 0x00, 0x00, 0x00, 0x00, 0x09,
  0xd8, 0x00, 0x00, 0x00, 0x04, 0x00, 0x00, 0x00, 0xff, 0xff, 0xff, 0xff,
  0x01, 0x00, 0x00, 0x00, 0x14, 0x00, 0x00, 0x00, 0x10, 0x00, 0x00, 0x00,
  0x14, 0xef, 0xff, 0xff, 0x08, 0x00, 0x00, 0x00, 0x14, 0x00, 0x00, 0x00,
  0x01, 0x00, 0x00, 0x00, 0x80, 0xff, 0xff, 0xff, 0xff, 0xff, 0xff, 0xff,
  0x00, 0x00, 0x00, 0x00, 0x01, 0x00, 0x00, 0x00, 0x20, 0x33, 0xb7, 0x3d,
  0x94, 0x00, 0x00, 0x00, 0x63, 0x6e, 0x6e, 0x31, 0x36, 0x5f, 0x31, 0x2f,
  0x63, 0x6f, 0x6e, 0x76, 0x31, 0x64, 0x5f, 0x33, 0x5f, 0x31, 0x2f, 0x52,
  0x65, 0x6c, 0x75, 0x3b, 0x63, 0x6e, 0x6e, 0x31, 0x36, 0x5f, 0x31, 0x2f,
  0x63, 0x6f, 0x6e, 0x76, 0x31, 0x64, 0x5f, 0x33, 0x5f, 0x31, 0x2f, 0x42,
  0x69, 0x61, 0x73, 0x41, 0x64, 0x64, 0x3b, 0x63, 0x6e, 0x6e, 0x31, 0x36,
  0x5f, 0x31, 0x2f, 0x63, 0x6f, 0x6e, 0x76, 0x31, 0x64, 0x5f, 0x33, 0x5f,
  0x31, 0x2f, 0x63, 0x6f, 0x6e, 0x76, 0x6f, 0x6c, 0x75, 0x74, 0x69, 0x6f,
  0x6e, 0x2f, 0x53, 0x71, 0x75, 0x65, 0x65, 0x7a, 0x65, 0x3b, 0x63, 0x6e,
  0x6e, 0x31, 0x36, 0x5f, 0x31, 0x2f, 0x63, 0x6f, 0x6e, 0x76, 0x31, 0x64,
  0x5f, 0x33, 0x5f, 0x31, 0x2f, 0x53, 0x71, 0x75, 0x65, 0x65, 0x7a, 0x65,
  0x3b, 0x63, 0x6e, 0x6e, 0x31, 0x36, 0x5f, 0x31, 0x2f, 0x63, 0x6f, 0x6e,
  0x76, 0x31, 0x64, 0x5f, 0x33, 0x5f, 0x31, 0x2f, 0x63, 0x6f, 0x6e, 0x76,
  0x6f, 0x6c, 0x75, 0x74, 0x69, 0x6f, 0x6e, 0x31, 0x00, 0x00, 0x00, 0x00,
  0x04, 0x00, 0x00, 0x00, 0x01, 0x00, 0x00, 0x00, 0x01, 0x00, 0x00, 0x00,
  0x14, 0x00, 0x00, 0x00, 0x10, 0x00, 0x00, 0x00, 0x2a, 0xf0, 0xff, 0xff,
  0x00, 0x00, 0x00, 0x01, 0x18, 0x00, 0x00, 0x00, 0x28, 0x00, 0x00, 0x00,
  0x48, 0x00, 0x00, 0x00, 0x16, 0x00, 0x00, 0x00, 0x00, 0x00, 0x00, 0x09,
  0x6c, 0x00, 0x00, 0x00, 0x04, 0x00, 0x00, 0x00, 0xff, 0xff, 0xff, 0xff,
  0x01, 0x00, 0x00, 0x00, 0x2b, 0x00, 0x00, 0x00, 0x10, 0x00, 0x00, 0x00,
  0x1c, 0xf0, 0xff, 0xff, 0x08, 0x00, 0x00, 0x00, 0x14, 0x00, 0x00, 0x00,
  0x01, 0x00, 0x00, 0x00, 0x80, 0xff, 0xff, 0xff, 0xff, 0xff, 0xff, 0xff,
  0x00, 0x00, 0x00, 0x00, 0x01, 0x00, 0x00, 0x00, 0x6e, 0xe9, 0x3c, 0x3d,
  0x29, 0x00, 0x00, 0x00, 0x63, 0x6e, 0x6e, 0x31, 0x36, 0x5f, 0x31, 0x2f,
  0x63, 0x6f, 0x6e, 0x76, 0x31, 0x64, 0x5f, 0x33, 0x5f, 0x31, 0x2f, 0x63,
  0x6f, 0x6e, 0x76, 0x6f, 0x6c, 0x75, 0x74, 0x69, 0x6f, 0x6e, 0x2f, 0x45,
  0x78, 0x70, 0x61, 0x6e, 0x64, 0x44, 0x69, 0x6d, 0x73, 0x00, 0x00, 0x00,
  0x04, 0x00, 0x00, 0x00, 0x01, 0x00, 0x00, 0x00, 0x01, 0x00, 0x00, 0x00,
  0x2b, 0x00, 0x00, 0x00, 0x10, 0x00, 0x00, 0x00, 0xc6, 0xf0, 0xff, 0xff,
  0x00, 0x00, 0x00, 0x01, 0x18, 0x00, 0x00, 0x00, 0x24, 0x00, 0x00, 0x00,
  0x40, 0x00, 0x00, 0x00, 0x15, 0x00, 0x00, 0x00, 0x00, 0x00, 0x00, 0x09,
  0x68, 0x00, 0x00, 0x00, 0x03, 0x00, 0x00, 0x00, 0xff, 0xff, 0xff, 0xff,
  0x2b, 0x00, 0x00, 0x00, 0x10, 0x00, 0x00, 0x00, 0xb4, 0xf0, 0xff, 0xff,
  0x08, 0x00, 0x00, 0x00, 0x10, 0x00, 0x00, 0x00, 0x01, 0x00, 0x00, 0x00,
  0x80, 0xff, 0xff, 0xff, 0xff, 0xff, 0xff, 0xff, 0x01, 0x00, 0x00, 0x00,
  0x6e, 0xe9, 0x3c, 0x3d, 0x2c, 0x00, 0x00, 0x00, 0x63, 0x6e, 0x6e, 0x31,
  0x36, 0x5f, 0x31, 0x2f, 0x6d, 0x61, 0x78, 0x5f, 0x70, 0x6f, 0x6f, 0x6c,
  0x69, 0x6e, 0x67, 0x31, 0x64, 0x5f, 0x31, 0x5f, 0x31, 0x2f, 0x4d, 0x61,
  0x78, 0x50, 0x6f, 0x6f, 0x6c, 0x31, 0x64, 0x2f, 0x53, 0x71, 0x75, 0x65,
  0x65, 0x7a, 0x65, 0x31, 0x00, 0x00, 0x00, 0x00, 0x03, 0x00, 0x00, 0x00,
  0x01, 0x00, 0x00, 0x00, 0x2b, 0x00, 0x00, 0x00, 0x10, 0x00, 0x00, 0x00,
  0x5a, 0xf1, 0xff, 0xff, 0x00, 0x00, 0x00, 0x01, 0x18, 0x00, 0x00, 0x00,
  0x28, 0x00, 0x00, 0x00, 0x44, 0x00, 0x00, 0x00, 0x14, 0x00, 0x00, 0x00,
  0x00, 0x00, 0x00, 0x09, 0x60, 0x00, 0x00, 0x00, 0x04, 0x00, 0x00, 0x00,
  0xff, 0xff, 0xff, 0xff, 0x01, 0x00, 0x00, 0x00, 0x2b, 0x00, 0x00, 0x00,
  0x10, 0x00, 0x00, 0x00, 0x4c, 0xf1, 0xff, 0xff, 0x08, 0x00, 0x00, 0x00,
  0x10, 0x00, 0x00, 0x00, 0x01, 0x00, 0x00, 0x00, 0x80, 0xff, 0xff, 0xff,
  0xff, 0xff, 0xff, 0xff, 0x01, 0x00, 0x00, 0x00, 0x6e, 0xe9, 0x3c, 0x3d,
  0x23, 0x00, 0x00, 0x00, 0x63, 0x6e, 0x6e, 0x31, 0x36, 0x5f, 0x31, 0x2f,
  0x6d, 0x61, 0x78, 0x5f, 0x70, 0x6f, 0x6f, 0x6c, 0x69, 0x6e, 0x67, 0x31,
  0x64, 0x5f, 0x31, 0x5f, 0x31, 0x2f, 0x4d, 0x61, 0x78, 0x50, 0x6f, 0x6f,
  0x6c, 0x31, 0x64, 0x00, 0x04, 0x00, 0x00, 0x00, 0x01, 0x00, 0x00, 0x00,
  0x01, 0x00, 0x00, 0x00, 0x2b, 0x00, 0x00, 0x00, 0x10, 0x00, 0x00, 0x00,
  0xea, 0xf1, 0xff, 0xff, 0x00, 0x00, 0x00, 0x01, 0x18, 0x00, 0x00, 0x00,
  0x28, 0x00, 0x00, 0x00, 0x44, 0x00, 0x00, 0x00, 0x13, 0x00, 0x00, 0x00,
  0x00, 0x00, 0x00, 0x09, 0x6c, 0x00, 0x00, 0x00, 0x04, 0x00, 0x00, 0x00,
  0xff, 0xff, 0xff, 0xff, 0x01, 0x00, 0x00, 0x00, 0x57, 0x00, 0x00, 0x00,
  0x10, 0x00, 0x00, 0x00, 0xdc, 0xf1, 0xff, 0xff, 0x08, 0x00, 0x00, 0x00,
  0x10, 0x00, 0x00, 0x00, 0x01, 0x00, 0x00, 0x00, 0x80, 0xff, 0xff, 0xff,
  0xff, 0xff, 0xff, 0xff, 0x01, 0x00, 0x00, 0x00, 0x6e, 0xe9, 0x3c, 0x3d,
  0x2e, 0x00, 0x00, 0x00, 0x63, 0x6e, 0x6e, 0x31, 0x36, 0x5f, 0x31, 0x2f,
  0x6d, 0x61, 0x78, 0x5f, 0x70, 0x6f, 0x6f, 0x6c, 0x69, 0x6e, 0x67, 0x31,
  0x64, 0x5f, 0x31, 0x5f, 0x31, 0x2f, 0x4d, 0x61, 0x78, 0x50, 0x6f, 0x6f,
  0x6c, 0x31, 0x64, 0x2f, 0x45, 0x78, 0x70, 0x61, 0x6e, 0x64, 0x44, 0x69,
  0x6d, 0x73, 0x00, 0x00, 0x04, 0x00, 0x00, 0x00, 0x01, 0x00, 0x00, 0x00,
  0x01, 0x00, 0x00, 0x00, 0x57, 0x00, 0x00, 0x00, 0x10, 0x00, 0x00, 0x00,
  0x86, 0xf2, 0xff, 0xff, 0x00, 0x00, 0x00, 0x01, 0x18, 0x00, 0x00, 0x00,
  0x24, 0x00, 0x00, 0x00, 0x40, 0x00, 0x00, 0x00, 0x12, 0x00, 0x00, 0x00,
  0x00, 0x00, 0x00, 0x09, 0xb0, 0x00, 0x00, 0x00, 0x03, 0x00, 0x00, 0x00,
  0xff, 0xff, 0xff, 0xff, 0x57, 0x00, 0x00, 0x00, 0x10, 0x00, 0x00, 0x00,
  0x74, 0xf2, 0xff, 0xff, 0x08, 0x00, 0x00, 0x00, 0x10, 0x00, 0x00, 0x00,
  0x01, 0x00, 0x00, 0x00, 0x80, 0xff, 0xff, 0xff, 0xff, 0xff, 0xff, 0xff,
  0x01, 0x00, 0x00, 0x00, 0x6e, 0xe9, 0x3c, 0x3d, 0x74, 0x00, 0x00, 0x00,
  0x63, 0x6e, 0x6e, 0x31, 0x36, 0x5f, 0x31, 0x2f, 0x63, 0x6f, 0x6e, 0x76,
  0x31, 0x64, 0x5f, 0x32, 0x5f, 0x31, 0x2f, 0x52, 0x65, 0x6c, 0x75, 0x3b,
  0x63, 0x6e, 0x6e, 0x31, 0x36, 0x5f, 0x31, 0x2f, 0x63, 0x6f, 0x6e, 0x76,
  0x31, 0x64, 0x5f, 0x32, 0x5f, 0x31, 0x2f, 0x42, 0x69, 0x61, 0x73, 0x41,
  0x64, 0x64, 0x3b, 0x63, 0x6e, 0x6e, 0x31, 0x36, 0x5f, 0x31, 0x2f, 0x63,
  0x6f, 0x6e, 0x76, 0x31, 0x64, 0x5f, 0x32, 0x5f, 0x31, 0x2f, 0x63, 0x6f,
  0x6e, 0x76, 0x6f, 0x6c, 0x75, 0x74, 0x69, 0x6f, 0x6e, 0x2f, 0x53, 0x71,
  0x75, 0x65, 0x65, 0x7a, 0x65, 0x3b, 0x63, 0x6e, 0x6e, 0x31, 0x36, 0x5f,
  0x31, 0x2f, 0x63, 0x6f, 0x6e, 0x76, 0x31, 0x64, 0x5f, 0x32, 0x5f, 0x31,
  0x2f, 0x53, 0x71, 0x75, 0x65, 0x65, 0x7a, 0x65, 0x00, 0x00, 0x00, 0x00,
  0x03, 0x00, 0x00, 0x00, 0x01, 0x00, 0x00, 0x00, 0x57, 0x00, 0x00, 0x00,
  0x10, 0x00, 0x00, 0x00, 0x62, 0xf3, 0xff, 0xff, 0x00, 0x00, 0x00, 0x01,
  0x18, 0x00, 0x00, 0x00, 0x28, 0x00, 0x00, 0x00, 0x48, 0x00, 0x00, 0x00,
  0x11, 0x00, 0x00, 0x00, 0x00, 0x00, 0x00, 0x09, 0xd8, 0x00, 0x00, 0x00,
  0x04, 0x00, 0x00, 0x00, 0xff, 0xff, 0xff, 0xff, 0x01, 0x00, 0x00, 0x00,
  0x57, 0x00, 0x00, 0x00, 0x10, 0x00, 0x00, 0x00, 0x54, 0xf3, 0xff, 0xff,
  0x08, 0x00, 0x00, 0x00, 0x14, 0x00, 0x00, 0x00, 0x01, 0x00, 0x00, 0x00,
  0x80, 0xff, 0xff, 0xff, 0xff, 0xff, 0xff, 0xff, 0x00, 0x00, 0x00, 0x00,
  0x01, 0x00, 0x00, 0x00, 0x6e, 0xe9, 0x3c, 0x3d, 0x94, 0x00, 0x00, 0x00,
  0x63, 0x6e, 0x6e, 0x31, 0x36, 0x5f, 0x31, 0x2f, 0x63, 0x6f, 0x6e, 0x76,
  0x31, 0x64, 0x5f, 0x32, 0x5f, 0x31, 0x2f, 0x52, 0x65, 0x6c, 0x75, 0x3b,
  0x63, 0x6e, 0x6e, 0x31, 0x36, 0x5f, 0x31, 0x2f, 0x63, 0x6f, 0x6e, 0x76,
  0x31, 0x64, 0x5f, 0x32, 0x5f, 0x31, 0x2f, 0x42, 0x69, 0x61, 0x73, 0x41,
  0x64, 0x64, 0x3b, 0x63, 0x6e, 0x6e, 0x31, 0x36, 0x5f, 0x31, 0x2f, 0x63,
  0x6f, 0x6e, 0x76, 0x31, 0x64, 0x5f, 0x32, 0x5f, 0x31, 0x2f, 0x63, 0x6f,
  0x6e, 0x76, 0x6f, 0x6c, 0x75, 0x74, 0x69, 0x6f, 0x6e, 0x2f, 0x53, 0x71,
  0x75, 0x65, 0x65, 0x7a, 0x65, 0x3b, 0x63, 0x6e, 0x6e, 0x31, 0x36, 0x5f,
  0x31, 0x2f, 0x63, 0x6f, 0x6e, 0x76, 0x31, 0x64, 0x5f, 0x32, 0x5f, 0x31,
  0x2f, 0x53, 0x71, 0x75, 0x65, 0x65, 0x7a, 0x65, 0x3b, 0x63, 0x6e, 0x6e,
  0x31, 0x36, 0x5f, 0x31, 0x2f, 0x63, 0x6f, 0x6e, 0x76, 0x31, 0x64, 0x5f,
  0x32, 0x5f, 0x31, 0x2f, 0x63, 0x6f, 0x6e, 0x76, 0x6f, 0x6c, 0x75, 0x74,
  0x69, 0x6f, 0x6e, 0x31, 0x00, 0x00, 0x00, 0x00, 0x04, 0x00, 0x00, 0x00,
  0x01, 0x00, 0x00, 0x00, 0x01, 0x00, 0x00, 0x00, 0x57, 0x00, 0x00, 0x00,
  0x10, 0x00, 0x00, 0x00, 0x6a, 0xf4, 0xff, 0xff, 0x00, 0x00, 0x00, 0x01,
  0x18, 0x00, 0x00, 0x00, 0x28, 0x00, 0x00, 0x00, 0x44, 0x00, 0x00, 0x00,
  0x10, 0x00, 0x00, 0x00, 0x00, 0x00, 0x00, 0x09, 0x68, 0x00, 0x00, 0x00,
  0x04, 0x00, 0x00, 0x00, 0xff, 0xff, 0xff, 0xff, 0x01, 0x00, 0x00, 0x00,
  0xb4, 0x00, 0x00, 0x00, 0x01, 0x00, 0x00, 0x00, 0x5c, 0xf4, 0xff, 0xff,
  0x08, 0x00, 0x00, 0x00, 0x10, 0x00, 0x00, 0x00, 0x01, 0x00, 0x00, 0x00,
  0xe0, 0xff, 0xff, 0xff, 0xff, 0xff, 0xff, 0xff, 0x01, 0x00, 0x00, 0x00,
  0xb2, 0x4b, 0x75, 0x3d, 0x29, 0x00, 0x00, 0x00, 0x63, 0x6e, 0x6e, 0x31,
  0x36, 0x5f, 0x31, 0x2f, 0x63, 0x6f, 0x6e, 0x76, 0x31, 0x64, 0x5f, 0x32,
  0x5f, 0x31, 0x2f, 0x63, 0x6f, 0x6e, 0x76, 0x6f, 0x6c, 0x75, 0x74, 0x69,
  0x6f, 0x6e, 0x2f, 0x45, 0x78, 0x70, 0x61, 0x6e, 0x64, 0x44, 0x69, 0x6d,
  0x73, 0x00, 0x00, 0x00, 0x04, 0x00, 0x00, 0x00, 0x01, 0x00, 0x00, 0x00,
  0x01, 0x00, 0x00, 0x00, 0xb4, 0x00, 0x00, 0x00, 0x01, 0x00, 0x00, 0x00,
  0xd6, 0xf5, 0xff, 0xff, 0x00, 0x00, 0x00, 0x01, 0x14, 0x00, 0x00, 0x00,
  0xe4, 0x00, 0x00, 0x00, 0x0f, 0x00, 0x00, 0x00, 0x00, 0x00, 0x00, 0x09,
  0xfc, 0x00, 0x00, 0x00, 0xdc, 0xf4, 0xff, 0xff, 0x08, 0x00, 0x00, 0x00,
  0x88, 0x00, 0x00, 0x00, 0x10, 0x00, 0x00, 0x00, 0x00, 0x00, 0x00, 0x00,
  0x00, 0x00, 0x00, 0x00, 0x00, 0x00, 0x00, 0x00, 0x00, 0x00, 0x00, 0x00,
  0x00, 0x00, 0x00, 0x00, 0x00, 0x00, 0x00, 0x00, 0x00, 0x00, 0x00, 0x00,
  0x00, 0x00, 0x00, 0x00, 0x00, 0x00, 0x00, 0x00, 0x00, 0x00, 0x00, 0x00,
  0x00, 0x00, 0x00, 0x00, 0x00, 0x00, 0x00, 0x00, 0x00, 0x00, 0x00, 0x00,
  0x00, 0x00, 0x00, 0x00, 0x00, 0x00, 0x00, 0x00, 0x00, 0x00, 0x00, 0x00,
  0x00, 0x00, 0x00, 0x00, 0x00, 0x00, 0x00, 0x00, 0x00, 0x00, 0x00, 0x00,
  0x00, 0x00, 0x00, 0x00, 0x00, 0x00, 0x00, 0x00, 0x00, 0x00, 0x00, 0x00,
  0x00, 0x00, 0x00, 0x00, 0x00, 0x00, 0x00, 0x00, 0x00, 0x00, 0x00, 0x00,
  0x00, 0x00, 0x00, 0x00, 0x00, 0x00, 0x00, 0x00, 0x00, 0x00, 0x00, 0x00,
  0x00, 0x00, 0x00, 0x00, 0x00, 0x00, 0x00, 0x00, 0x00, 0x00, 0x00, 0x00,
  0x00, 0x00, 0x00, 0x00, 0x10, 0x00, 0x00, 0x00, 0xfd, 0x84, 0xd2, 0x3a,
  0x06, 0xda, 0x22, 0x3b, 0x63, 0x4f, 0x69, 0x3b, 0x43, 0x7d, 0xd0, 0x3a,
  0x83, 0x75, 0x4e, 0x3b, 0xb1, 0x37, 0x37, 0x3b, 0xbe, 0x8f, 0x6f, 0x3b,
  0xaa, 0x4b, 0x19, 0x3b, 0xc5, 0x6d, 0x4a, 0x3b, 0xf4, 0x1f, 0x0a, 0x3b,
  0x12, 0x08, 0x0e, 0x3b, 0x19, 0x46, 0x08, 0x3b, 0xe9, 0xcb, 0xd7, 0x3a,
  0xd1, 0x22, 0x2a, 0x3b, 0xa4, 0x23, 0x15, 0x3b, 0xbe, 0xca, 0x25, 0x3b,
  0x1e, 0x00, 0x00, 0x00, 0x63, 0x6e, 0x6e, 0x31, 0x36, 0x5f, 0x31, 0x2f,
  0x63, 0x6f, 0x6e, 0x76, 0x31, 0x64, 0x5f, 0x32, 0x5f, 0x31, 0x2f, 0x63,
  0x6f, 0x6e, 0x76, 0x6f, 0x6c, 0x75, 0x74, 0x69, 0x6f, 0x6e, 0x00, 0x00,
  0x04, 0x00, 0x00, 0x00, 0x10, 0x00, 0x00, 0x00, 0x01, 0x00, 0x00, 0x00,
  0x07, 0x00, 0x00, 0x00, 0x01, 0x00, 0x00, 0x00, 0xfe, 0xf6, 0xff, 0xff,
  0x00, 0x00, 0x00, 0x01, 0x14, 0x00, 0x00, 0x00, 0xe4, 0x00, 0x00, 0x00,
  0x0e, 0x00, 0x00, 0x00, 0x00, 0x00, 0x00, 0x02, 0x70, 0x01, 0x00, 0x00,
  0x04, 0xf6, 0xff, 0xff, 0x08, 0x00, 0x00, 0x00, 0x88, 0x00, 0x00, 0x00,
  0x10, 0x00, 0x00, 0x00, 0x00, 0x00, 0x00, 0x00, 0x00, 0x00, 0x00, 0x00,
  0x00, 0x00, 0x00, 0x00, 0x00, 0x00, 0x00, 0x00, 0x00, 0x00, 0x00, 0x00,
  0x00, 0x00, 0x00, 0x00, 0x00, 0x00, 0x00, 0x00, 0x00, 0x00, 0x00, 0x00,
  0x00, 0x00, 0x00, 0x00, 0x00, 0x00, 0x00, 0x00, 0x00, 0x00, 0x00, 0x00,
  0x00, 0x00, 0x00, 0x00, 0x00, 0x00, 0x00, 0x00, 0x00, 0x00, 0x00, 0x00,
  0x00, 0x00, 0x00, 0x00, 0x00, 0x00, 0x00, 0x00, 0x00, 0x00, 0x00, 0x00,
  0x00, 0x00, 0x00, 0x00, 0x00, 0x00, 0x00, 0x00, 0x00, 0x00, 0x00, 0x00,
  0x00, 0x00, 0x00, 0x00, 0x00, 0x00, 0x00, 0x00, 0x00, 0x00, 0x00, 0x00,
  0x00, 0x00, 0x00, 0x00, 0x00, 0x00, 0x00, 0x00, 0x00, 0x00, 0x00, 0x00,
  0x00, 0x00, 0x00, 0x00, 0x00, 0x00, 0x00, 0x00, 0x00, 0x00, 0x00, 0x00,
  0x00, 0x00, 0x00, 0x00, 0x00, 0x00, 0x00, 0x00, 0x00, 0x00, 0x00, 0x00,
  0x10, 0x00, 0x00, 0x00, 0x85, 0xb7, 0xc9, 0x38, 0xcf, 0x0a, 0x1c, 0x39,
  0xf6, 0x8d, 0x5f, 0x39, 0x87, 0xc5, 0xc7, 0x38, 0x82, 0xd3, 0x45, 0x39,
  0x79, 0x8e, 0x2f, 0x39, 0x67, 0x8b, 0x65, 0x39, 0xbd, 0xe2, 0x12, 0x39,
  0xe8, 0xf6, 0x41, 0x39, 0x6c, 0x59, 0x04, 0x39, 0xb8, 0x17, 0x08, 0x39,
  0x61, 0x93, 0x02, 0x39, 0xf5, 0xc5, 0xce, 0x38, 0xa1, 0x05, 0x23, 0x39,
  0x35, 0xe7, 0x0e, 0x39, 0x0e, 0xdc, 0x1e, 0x39, 0x93, 0x00, 0x00, 0x00,
  0x63, 0x6e, 0x6e, 0x31, 0x36, 0x5f, 0x31, 0x2f, 0x63, 0x6f, 0x6e, 0x76,
  0x31, 0x64, 0x5f, 0x32, 0x5f, 0x31, 0x2f, 0x52, 0x65, 0x6c, 0x75, 0x3b,
  0x63, 0x6e, 0x6e, 0x31, 0x36, 0x5f, 0x31, 0x2f, 0x63, 0x6f, 0x6e, 0x76,
  0x31, 0x64, 0x5f, 0x32, 0x5f, 0x31, 0x2f, 0x42, 0x69, 0x61, 0x73, 0x41,
  0x64, 0x64, 0x3b, 0x63, 0x6e, 0x6e, 0x31, 0x36, 0x5f, 0x31, 0x2f, 0x63,
  0x6f, 0x6e, 0x76, 0x31, 0x64, 0x5f, 0x32, 0x5f, 0x31, 0x2f, 0x63, 0x6f,
  0x6e, 0x76, 0x6f, 0x6c, 0x75, 0x74, 0x69, 0x6f, 0x6e, 0x2f, 0x53, 0x71,
  0x75, 0x65, 0x65, 0x7a, 0x65, 0x3b, 0x63, 0x6e, 0x6e, 0x31, 0x36, 0x5f,
  0x31, 0x2f, 0x63, 0x6f, 0x6e, 0x76, 0x31, 0x64, 0x5f, 0x32, 0x5f, 0x31,
  0x2f, 0x53, 0x71, 0x75, 0x65, 0x65, 0x7a, 0x65, 0x3b, 0x63, 0x6e, 0x6e,
  0x31, 0x36, 0x5f, 0x31, 0x2f, 0x63, 0x6f, 0x6e, 0x76, 0x31, 0x64, 0x5f,
  0x32, 0x5f, 0x31, 0x2f, 0x63, 0x6f, 0x6e, 0x76, 0x6f, 0x6c, 0x75, 0x74,
  0x69, 0x6f, 0x6e, 0x00, 0x01, 0x00, 0x00, 0x00, 0x10, 0x00, 0x00, 0x00,
  0x8e, 0xf8, 0xff, 0xff, 0x00, 0x00, 0x00, 0x01, 0x14, 0x00, 0x00, 0x00,
  0xe4, 0x00, 0x00, 0x00, 0x0d, 0x00, 0x00, 0x00, 0x00, 0x00, 0x00, 0x09,
  0xfc, 0x00, 0x00, 0x00, 0x94, 0xf7, 0xff, 0xff, 0x08, 0x00, 0x00, 0x00,
  0x88, 0x00, 0x00, 0x00, 0x10, 0x00, 0x00, 0x00, 0x00, 0x00, 0x00, 0x00,
  0x00, 0x00, 0x00, 0x00, 0x00, 0x00, 0x00, 0x00, 0x00, 0x00, 0x00, 0x00,
  0x00, 0x00, 0x00, 0x00, 0x00, 0x00, 0x00, 0x00, 0x00, 0x00, 0x00, 0x00,
  0x00, 0x00, 0x00, 0x00, 0x00, 0x00, 0x00, 0x00, 0x00, 0x00, 0x00, 0x00,
  0x00, 0x00, 0x00, 0x00, 0x00, 0x00, 0x00, 0x00, 0x00, 0x00, 0x00, 0x00,
  0x00, 0x00, 0x00, 0x00, 0x00, 0x00, 0x00, 0x00, 0x00, 0x00, 0x00, 0x00,
  0x00, 0x00, 0x00, 0x00, 0x00, 0x00, 0x00, 0x00, 0x00, 0x00, 0x00, 0x00,
  0x00, 0x00, 0x00, 0x00, 0x00, 0x00, 0x00, 0x00, 0x00, 0x00, 0x00, 0x00,
  0x00, 0x00, 0x00, 0x00, 0x00, 0x00, 0x00, 0x00, 0x00, 0x00, 0x00, 0x00,
  0x00, 0x00, 0x00, 0x00, 0x00, 0x00, 0x00, 0x00, 0x00, 0x00, 0x00, 0x00,
  0x00, 0x00, 0x00, 0x00, 0x00, 0x00, 0x00, 0x00, 0x00, 0x00, 0x00, 0x00,
  0x00, 0x00, 0x00, 0x00, 0x10, 0x00, 0x00, 0x00, 0x1e, 0x19, 0x2b, 0x3b,
  0x2b, 0x21, 0x28, 0x3b, 0x6b, 0x52, 0x62, 0x3b, 0x2a, 0xb0, 0xb4, 0x3b,
  0xce, 0x16, 0xe0, 0x3a, 0x18, 0xa9, 0x86, 0x3b, 0xf4, 0x2e, 0x25, 0x3b,
  0x73, 0xf4, 0x91, 0x3b, 0x44, 0xae, 0xe0, 0x3a, 0x18, 0xa7, 0x96, 0x3b,
  0x12, 0xf4, 0xe1, 0x3b, 0x51, 0x45, 0x3b, 0x3b, 0xbc, 0x12, 0x5b, 0x3b,
  0xc2, 0xe3, 0x2d, 0x3b, 0xfb, 0x6f, 0x36, 0x3b, 0xee, 0xeb, 0x21, 0x3b,
  0x1e, 0x00, 0x00, 0x00, 0x63, 0x6e, 0x6e, 0x31, 0x36, 0x5f, 0x31, 0x2f,
  0x63, 0x6f, 0x6e, 0x76, 0x31, 0x64, 0x5f, 0x33, 0x5f, 0x31, 0x2f, 0x63,
  0x6f, 0x6e, 0x76, 0x6f, 0x6c, 0x75, 0x74, 0x69, 0x6f, 0x6e, 0x00, 0x00,
  0x04, 0x00, 0x00, 0x00, 0x10, 0x00, 0x00, 0x00, 0x01, 0x00, 0x00, 0x00,
  0x05, 0x00, 0x00, 0x00, 0x10, 0x00, 0x00, 0x00, 0xb6, 0xf9, 0xff, 0xff,
  0x00, 0x00, 0x00, 0x01, 0x14, 0x00, 0x00, 0x00, 0xe4, 0x00, 0x00, 0x00,
  0x0c, 0x00, 0x00, 0x00, 0x00, 0x00, 0x00, 0x02, 0x70, 0x01, 0x00, 0x00,
  0xbc, 0xf8, 0xff, 0xff, 0x08, 0x00, 0x00, 0x00, 0x88, 0x00, 0x00, 0x00,
  0x10, 0x00, 0x00, 0x00, 0x00, 0x00, 0x00, 0x00, 0x00, 0x00, 0x00, 0x00,
  0x00, 0x00, 0x00, 0x00, 0x00, 0x00, 0x00, 0x00, 0x00, 0x00, 0x00, 0x00,
  0x00, 0x00, 0x00, 0x00, 0x00, 0x00, 0x00, 0x00, 0x00, 0x00, 0x00, 0x00,
  0x00, 0x00, 0x00, 0x00, 0x00, 0x00, 0x00, 0x00, 0x00, 0x00, 0x00, 0x00,
  0x00, 0x00, 0x00, 0x00, 0x00, 0x00, 0x00, 0x00, 0x00, 0x00, 0x00, 0x00,
  0x00, 0x00, 0x00, 0x00, 0x00, 0x00, 0x00, 0x00, 0x00, 0x00, 0x00, 0x00,
  0x00, 0x00, 0x00, 0x00, 0x00, 0x00, 0x00, 0x00, 0x00, 0x00, 0x00, 0x00,
  0x00, 0x00, 0x00, 0x00, 0x00, 0x00, 0x00, 0x00, 0x00, 0x00, 0x00, 0x00,
  0x00, 0x00, 0x00, 0x00, 0x00, 0x00, 0x00, 0x00, 0x00, 0x00, 0x00, 0x00,
  0x00, 0x00, 0x00, 0x00, 0x00, 0x00, 0x00, 0x00, 0x00, 0x00, 0x00, 0x00,
  0x00, 0x00, 0x00, 0x00, 0x00, 0x00, 0x00, 0x00, 0x00, 0x00, 0x00, 0x00,
  0x10, 0x00, 0x00, 0x00, 0xeb, 0x84, 0xfc, 0x38, 0x54, 0x23, 0xf8, 0x38,
  0xe5, 0x02, 0x27, 0x39, 0x21, 0x56, 0x85, 0x39, 0x14, 0x5d, 0xa5, 0x38,
  0xef, 0xbd, 0x46, 0x39, 0x34, 0xca, 0xf3, 0x38, 0x35, 0x69, 0x57, 0x39,
  0xd9, 0xcc, 0xa5, 0x38, 0x29, 0x58, 0x5e, 0x39, 0x45, 0xbd, 0xa6, 0x39,
  0xaa, 0x31, 0x0a, 0x39, 0x84, 0xa9, 0x21, 0x39, 0xd1, 0x51, 0x00, 0x39,
  0x97, 0xa0, 0x06, 0x39, 0xd0, 0xf9, 0xee, 0x38, 0x93, 0x00, 0x00, 0x00,
  0x63, 0x6e, 0x6e, 0x31, 0x36, 0x5f, 0x31, 0x2f, 0x63, 0x6f, 0x6e, 0x76,
  0x31, 0x64, 0x5f, 0x33, 0x5f, 0x31, 0x2f, 0x52, 0x65, 0x6c, 0x75, 0x3b,
  0x63, 0x6e, 0x6e, 0x31, 0x36, 0x5f, 0x31, 0x2f, 0x63, 0x6f, 0x6e, 0x76,
  0x31, 0x64, 0x5f, 0x33, 0x5f, 0x31, 0x2f, 0x42, 0x69, 0x61, 0x73, 0x41,
  0x64, 0x64, 0x3b, 0x63, 0x6e, 0x6e, 0x31, 0x36, 0x5f, 0x31, 0x2f, 0x63,
  0x6f, 0x6e, 0x76, 0x31, 0x64, 0x5f, 0x33, 0x5f, 0x31, 0x2f, 0x63, 0x6f,
  0x6e, 0x76, 0x6f, 0x6c, 0x75, 0x74, 0x69, 0x6f, 0x6e, 0x2f, 0x53, 0x71,
  0x75, 0x65, 0x65, 0x7a, 0x65, 0x3b, 0x63, 0x6e, 0x6e, 0x31, 0x36, 0x5f,
  0x31, 0x2f, 0x63, 0x6f, 0x6e, 0x76, 0x31, 0x64, 0x5f, 0x33, 0x5f, 0x31,
  0x2f, 0x53, 0x71, 0x75, 0x65, 0x65, 0x7a, 0x65, 0x3b, 0x63, 0x6e, 0x6e,
  0x31, 0x36, 0x5f, 0x31, 0x2f, 0x63, 0x6f, 0x6e, 0x76, 0x31, 0x64, 0x5f,
  0x33, 0x5f, 0x31, 0x2f, 0x63, 0x6f, 0x6e, 0x76, 0x6f, 0x6c, 0x75, 0x74,
  0x69, 0x6f, 0x6e, 0x00, 0x01, 0x00, 0x00, 0x00, 0x10, 0x00, 0x00, 0x00,
  0x46, 0xfb, 0xff, 0xff, 0x00, 0x00, 0x00, 0x01, 0x14, 0x00, 0x00, 0x00,
  0xe8, 0x00, 0x00, 0x00, 0x0b, 0x00, 0x00, 0x00, 0x00, 0x00, 0x00, 0x09,
  0xfc, 0x00, 0x00, 0x00, 0x4c, 0xfa, 0xff, 0xff, 0x08, 0x00, 0x00, 0x00,
  0x8c, 0x00, 0x00, 0x00, 0x10, 0x00, 0x00, 0x00, 0x00, 0x00, 0x00, 0x00,
  0x00, 0x00, 0x00, 0x00, 0x00, 0x00, 0x00, 0x00, 0x00, 0x00, 0x00, 0x00,
  0x00, 0x00, 0x00, 0x00, 0x00, 0x00, 0x00, 0x00, 0x00, 0x00, 0x00, 0x00,
  0x00, 0x00, 0x00, 0x00, 0x00, 0x00, 0x00, 0x00, 0x00, 0x00, 0x00, 0x00,
  0x00, 0x00, 0x00, 0x00, 0x00, 0x00, 0x00, 0x00, 0x00, 0x00, 0x00, 0x00,
  0x00, 0x00, 0x00, 0x00, 0x00, 0x00, 0x00, 0x00, 0x00, 0x00, 0x00, 0x00,
  0x00, 0x00, 0x00, 0x00, 0x00, 0x00, 0x00, 0x00, 0x00, 0x00, 0x00, 0x00,
  0x00, 0x00, 0x00, 0x00, 0x00, 0x00, 0x00, 0x00, 0x00, 0x00, 0x00, 0x00,
  0x00, 0x00, 0x00, 0x00, 0x00, 0x00, 0x00, 0x00, 0x00, 0x00, 0x00, 0x00,
  0x00, 0x00, 0x00, 0x00, 0x00, 0x00, 0x00, 0x00, 0x00, 0x00, 0x00, 0x00,
  0x00, 0x00, 0x00, 0x00, 0x00, 0x00, 0x00, 0x00, 0x00, 0x00, 0x00, 0x00,
  0x00, 0x00, 0x00, 0x00, 0x00, 0x00, 0x00, 0x00, 0x10, 0x00, 0x00, 0x00,
  0xf1, 0x3e, 0x96, 0x3b, 0x31, 0x0f, 0x5e, 0x3b, 0x9a, 0x01, 0x51, 0x3b,
  0xde, 0x33, 0x32, 0x3c, 0x65, 0x75, 0x8a, 0x3b, 0x91, 0x3f, 0xaa, 0x3b,
  0x64, 0xbc, 0xd8, 0x3b, 0x2d, 0xba, 0x81, 0x3b, 0x29, 0x12, 0xad, 0x3b,
  0xbb, 0x6e, 0xde, 0x3b, 0x4d, 0x0a, 0x0b, 0x3c, 0x9f, 0x64, 0x81, 0x3b,
  0x8f, 0xf7, 0x9f, 0x3b, 0xe2, 0xcf, 0x66, 0x3b, 0x37, 0xa7, 0xee, 0x3b,
  0xdc, 0x5f, 0xae, 0x3b, 0x19, 0x00, 0x00, 0x00, 0x63, 0x6e, 0x6e, 0x31,
  0x36, 0x5f, 0x31, 0x2f, 0x64, 0x65, 0x6e, 0x73, 0x65, 0x5f, 0x31, 0x38,
  0x5f, 0x31, 0x2f, 0x4d, 0x61, 0x74, 0x4d, 0x75, 0x6c, 0x00, 0x00, 0x00,
  0x02, 0x00, 0x00, 0x00, 0x10, 0x00, 0x00, 0x00, 0x14, 0x00, 0x00, 0x00,
  0x66, 0xfc, 0xff, 0xff, 0x00, 0x00, 0x00, 0x01, 0x14, 0x00, 0x00, 0x00,
  0xe4, 0x00, 0x00, 0x00, 0x0a, 0x00, 0x00, 0x00, 0x00, 0x00, 0x00, 0x02,
  0x10, 0x01, 0x00, 0x00, 0x6c, 0xfb, 0xff, 0xff, 0x08, 0x00, 0x00, 0x00,
  0x88, 0x00, 0x00, 0x00, 0x10, 0x00, 0x00, 0x00, 0x00, 0x00, 0x00, 0x00,
  0x00, 0x00, 0x00, 0x00, 0x00, 0x00, 0x00, 0x00, 0x00, 0x00, 0x00, 0x00,
  0x00, 0x00, 0x00, 0x00, 0x00, 0x00, 0x00, 0x00, 0x00, 0x00, 0x00, 0x00,
  0x00, 0x00, 0x00, 0x00, 0x00, 0x00, 0x00, 0x00, 0x00, 0x00, 0x00, 0x00,
  0x00, 0x00, 0x00, 0x00, 0x00, 0x00, 0x00, 0x00, 0x00, 0x00, 0x00, 0x00,
  0x00, 0x00, 0x00, 0x00, 0x00, 0x00, 0x00, 0x00, 0x00, 0x00, 0x00, 0x00,
  0x00, 0x00, 0x00, 0x00, 0x00, 0x00, 0x00, 0x00, 0x00, 0x00, 0x00, 0x00,
  0x00, 0x00, 0x00, 0x00, 0x00, 0x00, 0x00, 0x00, 0x00, 0x00, 0x00, 0x00,
  0x00, 0x00, 0x00, 0x00, 0x00, 0x00, 0x00, 0x00, 0x00, 0x00, 0x00, 0x00,
  0x00, 0x00, 0x00, 0x00, 0x00, 0x00, 0x00, 0x00, 0x00, 0x00, 0x00, 0x00,
  0x00, 0x00, 0x00, 0x00, 0x00, 0x00, 0x00, 0x00, 0x00, 0x00, 0x00, 0x00,
  0x00, 0x00, 0x00, 0x00, 0x10, 0x00, 0x00, 0x00, 0x7c, 0xd8, 0x82, 0x38,
  0xe6, 0x62, 0x41, 0x38, 0xc9, 0x04, 0x36, 0x38, 0x49, 0x31, 0x1b, 0x39,
  0x25, 0x29, 0x71, 0x38, 0xeb, 0x43, 0x94, 0x38, 0x11, 0xc0, 0xbc, 0x38,
  0xf1, 0xf3, 0x61, 0x38, 0x35, 0xb9, 0x96, 0x38, 0x1a, 0xb6, 0xc1, 0x38,
  0x80, 0x2c, 0xf2, 0x38, 0xed, 0x5e, 0x61, 0x38, 0xc3, 0x4f, 0x8b, 0x38,
  0x44, 0x02, 0x49, 0x38, 0x68, 0xd6, 0xcf, 0x38, 0xd1, 0xdb, 0x97, 0x38,
  0x32, 0x00, 0x00, 0x00, 0x63, 0x6e, 0x6e, 0x31, 0x36, 0x5f, 0x31, 0x2f,
  0x64, 0x65, 0x6e, 0x73, 0x65, 0x5f, 0x31, 0x38, 0x5f, 0x31, 0x2f, 0x52,
  0x65, 0x6c, 0x75, 0x3b, 0x63, 0x6e, 0x6e, 0x31, 0x36, 0x5f, 0x31, 0x2f,
  0x64, 0x65, 0x6e, 0x73, 0x65, 0x5f, 0x31, 0x38, 0x5f, 0x31, 0x2f, 0x42,
  0x69, 0x61, 0x73, 0x41, 0x64, 0x64, 0x00, 0x00, 0x01, 0x00, 0x00, 0x00,
  0x10, 0x00, 0x00, 0x00, 0x96, 0xfd, 0xff, 0xff, 0x00, 0x00, 0x00, 0x01,
  0x14, 0x00, 0x00, 0x00, 0x60, 0x00, 0x00, 0x00, 0x09, 0x00, 0x00, 0x00,
  0x00, 0x00, 0x00, 0x09, 0x74, 0x00, 0x00, 0x00, 0x9c, 0xfc, 0xff, 0xff,
  0x08, 0x00, 0x00, 0x00, 0x30, 0x00, 0x00, 0x00, 0x05, 0x00, 0x00, 0x00,
  0x00, 0x00, 0x00, 0x00, 0x00, 0x00, 0x00, 0x00, 0x00, 0x00, 0x00, 0x00,
  0x00, 0x00, 0x00, 0x00, 0x00, 0x00, 0x00, 0x00, 0x00, 0x00, 0x00, 0x00,
  0x00, 0x00, 0x00, 0x00, 0x00, 0x00, 0x00, 0x00, 0x00, 0x00, 0x00, 0x00,
  0x00, 0x00, 0x00, 0x00, 0x05, 0x00, 0x00, 0x00, 0xd9, 0x8a, 0x0b, 0x3c,
  0x28, 0x82, 0x54, 0x3c, 0x12, 0x14, 0xfc, 0x3b, 0x09, 0xa2, 0x25, 0x3c,
  0x16, 0xb3, 0xf9, 0x3b, 0x19, 0x00, 0x00, 0x00, 0x63, 0x6e, 0x6e, 0x31,
  0x36, 0x5f, 0x31, 0x2f, 0x64, 0x65, 0x6e, 0x73, 0x65, 0x5f, 0x31, 0x39,
  0x5f, 0x31, 0x2f, 0x4d, 0x61, 0x74, 0x4d, 0x75, 0x6c, 0x00, 0x00, 0x00,
  0x02, 0x00, 0x00, 0x00, 0x05, 0x00, 0x00, 0x00, 0x10, 0x00, 0x00, 0x00,
  0x2e, 0xfe, 0xff, 0xff, 0x00, 0x00, 0x00, 0x01, 0x14, 0x00, 0x00, 0x00,
  0x64, 0x00, 0x00, 0x00, 0x08, 0x00, 0x00, 0x00, 0x00, 0x00, 0x00, 0x02,
  0x78, 0x00, 0x00, 0x00, 0x34, 0xfd, 0xff, 0xff, 0x08, 0x00, 0x00, 0x00,
  0x34, 0x00, 0x00, 0x00, 0x05, 0x00, 0x00, 0x00, 0x00, 0x00, 0x00, 0x00,
  0x00, 0x00, 0x00, 0x00, 0x00, 0x00, 0x00, 0x00, 0x00, 0x00, 0x00, 0x00,
  0x00, 0x00, 0x00, 0x00, 0x00, 0x00, 0x00, 0x00, 0x00, 0x00, 0x00, 0x00,
  0x00, 0x00, 0x00, 0x00, 0x00, 0x00, 0x00, 0x00, 0x00, 0x00, 0x00, 0x00,
  0x00, 0x00, 0x00, 0x00, 0x05, 0x00, 0x00, 0x00, 0x1d, 0x67, 0x03, 0x39,
  0xd9, 0x1c, 0x48, 0x39, 0xe0, 0x5f, 0xed, 0x38, 0xb3, 0xf8, 0x1b, 0x39,
  0x6a, 0x22, 0xeb, 0x38, 0x1a, 0x00, 0x00, 0x00, 0x63, 0x6e, 0x6e, 0x31,
  0x36, 0x5f, 0x31, 0x2f, 0x64, 0x65, 0x6e, 0x73, 0x65, 0x5f, 0x31, 0x39,
  0x5f, 0x31, 0x2f, 0x42, 0x69, 0x61, 0x73, 0x41, 0x64, 0x64, 0x00, 0x00,
  0x01, 0x00, 0x00, 0x00, 0x05, 0x00, 0x00, 0x00, 0xc6, 0xfe, 0xff, 0xff,
  0x00, 0x00, 0x00, 0x01, 0x14, 0x00, 0x00, 0x00, 0x14, 0x00, 0x00, 0x00,
  0x07, 0x00, 0x00, 0x00, 0x00, 0x00, 0x00, 0x02, 0x34, 0x00, 0x00, 0x00,
  0xb0, 0xfe, 0xff, 0xff, 0x26, 0x00, 0x00, 0x00, 0x63, 0x6e, 0x6e, 0x31,
  0x36, 0x5f, 0x31, 0x2f, 0x63, 0x6f, 0x6e, 0x76, 0x31, 0x64, 0x5f, 0x33,
  0x5f, 0x31, 0x2f, 0x63, 0x6f, 0x6e, 0x76, 0x6f, 0x6c, 0x75, 0x74, 0x69,
  0x6f, 0x6e, 0x2f, 0x53, 0x71, 0x75, 0x65, 0x65, 0x7a, 0x65, 0x00, 0x00,
  0x01, 0x00, 0x00, 0x00, 0x03, 0x00, 0x00, 0x00, 0x1a, 0xff, 0xff, 0xff,
  0x00, 0x00, 0x00, 0x01, 0x14, 0x00, 0x00, 0x00, 0x14, 0x00, 0x00, 0x00,
  0x06, 0x00, 0x00, 0x00, 0x00, 0x00, 0x00, 0x02, 0x38, 0x00, 0x00, 0x00,
  0x04, 0xff, 0xff, 0xff, 0x2b, 0x00, 0x00, 0x00, 0x63, 0x6e, 0x6e, 0x31,
  0x36, 0x5f, 0x31, 0x2f, 0x6d, 0x61, 0x78, 0x5f, 0x70, 0x6f, 0x6f, 0x6c,
  0x69, 0x6e, 0x67, 0x31, 0x64, 0x5f, 0x31, 0x5f, 0x31, 0x2f, 0x4d, 0x61,
  0x78, 0x50, 0x6f, 0x6f, 0x6c, 0x31, 0x64, 0x2f, 0x53, 0x71, 0x75, 0x65,
  0x65, 0x7a, 0x65, 0x00, 0x01, 0x00, 0x00, 0x00, 0x03, 0x00, 0x00, 0x00,
  0x72, 0xff, 0xff, 0xff, 0x00, 0x00, 0x00, 0x01, 0x14, 0x00, 0x00, 0x00,
  0x14, 0x00, 0x00, 0x00, 0x05, 0x00, 0x00, 0x00, 0x00, 0x00, 0x00, 0x02,
  0x1c, 0x00, 0x00, 0x00, 0x5c, 0xff, 0xff, 0xff, 0x0e, 0x00, 0x00, 0x00,
  0x61, 0x72, 0x69, 0x74, 0x68, 0x2e, 0x63, 0x6f, 0x6e, 0x73, 0x74, 0x61,
  0x6e, 0x74, 0x00, 0x00, 0x00, 0x00, 0x00, 0x00, 0xaa, 0xff, 0xff, 0xff,
  0x00, 0x00, 0x00, 0x01, 0x14, 0x00, 0x00, 0x00, 0x14, 0x00, 0x00, 0x00,
  0x04, 0x00, 0x00, 0x00, 0x00, 0x00, 0x00, 0x02, 0x34, 0x00, 0x00, 0x00,
  0x94, 0xff, 0xff, 0xff, 0x26, 0x00, 0x00, 0x00, 0x63, 0x6e, 0x6e, 0x31,
  0x36, 0x5f, 0x31, 0x2f, 0x63, 0x6f, 0x6e, 0x76, 0x31, 0x64, 0x5f, 0x32,
  0x5f, 0x31, 0x2f, 0x63, 0x6f, 0x6e, 0x76, 0x6f, 0x6c, 0x75, 0x74, 0x69,
  0x6f, 0x6e, 0x2f, 0x53, 0x71, 0x75, 0x65, 0x65, 0x7a, 0x65, 0x00, 0x00,
  0x01, 0x00, 0x00, 0x00, 0x03, 0x00, 0x00, 0x00, 0x00, 0x00, 0x16, 0x00,
  0x1c, 0x00, 0x18, 0x00, 0x17, 0x00, 0x10, 0x00, 0x0c, 0x00, 0x08, 0x00,
  0x00, 0x00, 0x00, 0x00, 0x00, 0x00, 0x07, 0x00, 0x16, 0x00, 0x00, 0x00,
  0x00, 0x00, 0x00, 0x01, 0x18, 0x00, 0x00, 0x00, 0x18, 0x00, 0x00, 0x00,
  0x03, 0x00, 0x00, 0x00, 0x00, 0x00, 0x00, 0x02, 0x20, 0x00, 0x00, 0x00,
  0x04, 0x00, 0x04, 0x00, 0x04, 0x00, 0x00, 0x00, 0x0f, 0x00, 0x00, 0x00,
  0x61, 0x72, 0x69, 0x74, 0x68, 0x2e, 0x63, 0x6f, 0x6e, 0x73, 0x74, 0x61,
  0x6e, 0x74, 0x31, 0x00, 0x00, 0x00, 0x00, 0x00, 0x7e, 0xff, 0xff, 0xff,
  0x00, 0x00, 0x00, 0x01, 0x18, 0x00, 0x00, 0x00, 0x24, 0x00, 0x00, 0x00,
  0x44, 0x00, 0x00, 0x00, 0x02, 0x00, 0x00, 0x00, 0x00, 0x00, 0x00, 0x09,
  0x54, 0x00, 0x00, 0x00, 0x03, 0x00, 0x00, 0x00, 0xff, 0xff, 0xff, 0xff,
  0xb4, 0x00, 0x00, 0x00, 0x01, 0x00, 0x00, 0x00, 0x6c, 0xff, 0xff, 0xff,
  0x08, 0x00, 0x00, 0x00, 0x14, 0x00, 0x00, 0x00, 0x01, 0x00, 0x00, 0x00,
  0xe0, 0xff, 0xff, 0xff, 0xff, 0xff, 0xff, 0xff, 0x00, 0x00, 0x00, 0x00,
  0x01, 0x00, 0x00, 0x00, 0xb2, 0x4b, 0x75, 0x3d, 0x16, 0x00, 0x00, 0x00,
  0x73, 0x65, 0x72, 0x76, 0x69, 0x6e, 0x67, 0x5f, 0x64, 0x65, 0x66, 0x61,
  0x75, 0x6c, 0x74, 0x5f, 0x62, 0x65, 0x61, 0x74, 0x3a, 0x30, 0x00, 0x00,
  0x03, 0x00, 0x00, 0x00, 0x01, 0x00, 0x00, 0x00, 0xb4, 0x00, 0x00, 0x00,
  0x01, 0x00, 0x00, 0x00, 0x00, 0x00, 0x16, 0x00, 0x20, 0x00, 0x1c, 0x00,
  0x1b, 0x00, 0x14, 0x00, 0x10, 0x00, 0x0c, 0x00, 0x00, 0x00, 0x00, 0x00,
  0x08, 0x00, 0x07, 0x00, 0x16, 0x00, 0x00, 0x00, 0x00, 0x00, 0x00, 0x01,
  0x18, 0x00, 0x00, 0x00, 0x2c, 0x00, 0x00, 0x00, 0x4c, 0x00, 0x00, 0x00,
  0x01, 0x00, 0x00, 0x00, 0x00, 0x00, 0x00, 0x09, 0x5c, 0x00, 0x00, 0x00,
  0x02, 0x00, 0x00, 0x00, 0xff, 0xff, 0xff, 0xff, 0x04, 0x00, 0x00, 0x00,
  0x0c, 0x00, 0x0c, 0x00, 0x00, 0x00, 0x00, 0x00, 0x08, 0x00, 0x04, 0x00,
  0x0c, 0x00, 0x00, 0x00, 0x08, 0x00, 0x00, 0x00, 0x14, 0x00, 0x00, 0x00,
  0x01, 0x00, 0x00, 0x00, 0x80, 0xff, 0xff, 0xff, 0xff, 0xff, 0xff, 0xff,
  0x00, 0x00, 0x00, 0x00, 0x01, 0x00, 0x00, 0x00, 0xc8, 0xf1, 0x5e, 0x3c,
  0x14, 0x00, 0x00, 0x00, 0x73, 0x65, 0x72, 0x76, 0x69, 0x6e, 0x67, 0x5f,
  0x64, 0x65, 0x66, 0x61, 0x75, 0x6c, 0x74, 0x5f, 0x72, 0x72, 0x3a, 0x30,
  0x00, 0x00, 0x00, 0x00, 0x02, 0x00, 0x00, 0x00, 0x01, 0x00, 0x00, 0x00,
  0x04, 0x00, 0x00, 0x00, 0x08, 0x00, 0x00, 0x00, 0xa4, 0x00, 0x00, 0x00,
  0x84, 0x00, 0x00, 0x00, 0x68, 0x00, 0x00, 0x00, 0x54, 0x00, 0x00, 0x00,
  0x40, 0x00, 0x00, 0x00, 0x2c, 0x00, 0x00, 0x00, 0x18, 0x00, 0x00, 0x00,
  0x04, 0x00, 0x00, 0x00, 0xa4, 0xff, 0xff, 0xff, 0x19, 0x00, 0x00, 0x00,
  0x02, 0x00, 0x00, 0x00, 0x00, 0x00, 0x00, 0x19, 0xb4, 0xff, 0xff, 0xff,
  0x09, 0x00, 0x00, 0x00, 0x04, 0x00, 0x00, 0x00, 0x00, 0x00, 0x00, 0x09,
  0xc4, 0xff, 0xff, 0xff, 0x02, 0x00, 0x00, 0x00, 0x02, 0x00, 0x00, 0x00,
  0x00, 0x00, 0x00, 0x02, 0xd4, 0xff, 0xff, 0xff, 0x28, 0x00, 0x00, 0x00,
  0x02, 0x00, 0x00, 0x00, 0x00, 0x00, 0x00, 0x28, 0xe4, 0xff, 0xff, 0xff,
  0x11, 0x00, 0x00, 0x00, 0x02, 0x00, 0x00, 0x00, 0x00, 0x00, 0x00, 0x11,
  0xd8, 0xff, 0xff, 0xff, 0x16, 0x00, 0x00, 0x00, 0x00, 0x00, 0x00, 0x16,
  0x0c, 0x00, 0x10, 0x00, 0x0f, 0x00, 0x00, 0x00, 0x08, 0x00, 0x04, 0x00,
  0x0c, 0x00, 0x00, 0x00, 0x03, 0x00, 0x00, 0x00, 0x03, 0x00, 0x00, 0x00,
  0x00, 0x00, 0x00, 0x03, 0x0c, 0x00, 0x0c, 0x00, 0x0b, 0x00, 0x00, 0x00,
  0x00, 0x00, 0x04, 0x00, 0x0c, 0x00, 0x00, 0x00, 0x46, 0x00, 0x00, 0x00,
  0x00, 0x00, 0x00, 0x46,
};
const unsigned int g_model_data_len = 9496;
